, 50318
for 3727
and 3516
/ 3004
bag 2452
ready 2253
stock 2217
new 2049
's 2047
style 1942
with 1798
women 1786
shoes 1575
men 1573
of 1461
the 1407
in 1369
case 1156
a 1144
- 1135
summer 1089
korean 1043
cover 984
small 980
baby 978
box 976
s 942
phone 919
casual 895
size 892
leather 888
pants 886
high 875
fashion 874
to 867
-@@ 866
free 863
card 847
large 844
light 825
black 812
car 789
1 769
mens 757
protective 742
x 741
cotton 740
2 739
set 736
white 716
color 692
gift 640
( 639
long 638
) 637
3 634
hair 634
e@@ 633
storage 631
hot 624
sports 615
children 598
waterproof 596
top 594
soft 592
womens 578
d@@ 575
short 571
4 567
5 566
ring 564
clothes 563
mobile 558
g@@ 553
c@@ 549
cat 548
home 547
taiwan 547
version 544
boots 543
sleeve 540
female 536
6 522
y@@ 520
camera 519
portable 518
water 517
autumn 515
on 514
s@@ 512
spring 512
k@@ 511
t-shirt 504
red 499
breathable 495
t@@ 494
re@@ 493
pro 490
suit 490
watch 486
m@@ 485
shirt 485
loose 481
thin 481
shipping 478
accessories 476
mini 474
i 473
ins 473
2022 469
dress 467
o 462
cute 460
outdoor 458
pet 451
oil 446
f@@ 445
super 445
8 444
a@@ 442
b@@ 442
electric 440
glass 439
socks 434
special 434
i@@ 430
x@@ 430
steel 427
air 425
7 422
original 422
h@@ 421
p@@ 419
all-match 416
film 416
r@@ 416
holder 415
one 410
winter 408
lens 407
t 397
full 393
5@@ 391
blue 391
wear 391
. 389
hand 389
strap 389
backpack 383
cable 383
e 383
12 382
v@@ 382
machine 380
sticker 380
️ 376
c 375
can 374
m 374
tea 374
pack 373
| 373
3@@ 372
student 371
+ 370
w@@ 368
silicone 365
travel 365
g 364
japanese 364
cloth 363
food 363
2@@ 360
screen 359
genuine 358
skirt 356
6@@ 355
dog 355
pure 355
apple 354
head 353
cartoon 352
l 352
8@@ 351
shell 351
plus 350
brand 347
stickers 347
~ 347
10 346
4@@ 345
simple 345
w 345
o@@ 344
jacket 343
er 342
n@@ 341
waist 341
by 339
l@@ 339
led 338
table 338
trendy 337
girls 335
pad 333
quality 333
7@@ 331
iphone 331
u@@ 331
no 330
canvas 326
fast 326
protection 326
gold 325
toy 324
ing 323
y 322
fan 320
cleaning 319
double 319
safety 319
shoulder 319
belt 317
bracelet 317
chain 316
j@@ 316
bags 315
sandals 310
sweater 310
bottle 308
powder 307
100 304
nail 303
round 302
' 301
anti-@@ 300
girl 300
mask 300
silver 300
11 299
single 299
d 298
sale 298
type 298
series 297
li@@ 296
retro 296
an@@ 295
usb 295
delivery 293
1@@ 291
se@@ 291
] 290
de@@ 290
ice 290
cream 289
xiaomi 289
stand 288
cup 287
household 287
9 285
key 285
le@@ 284
an 282
big 282
pieces 282
# 281
[ 280
k 280
wireless 280
✨ 279
p 278
9@@ 277
charging 276
z@@ 276
shorts 275
skin 275
u 274
back 273
stainless 273
fashionable 272
toys 272
2021 271
hat 271
ball 270
es 268
suitable 267
universal 264
h 262
max 262
boys 261
silk 261
er@@ 260
japan 260
tool 260
clothing 257
game 257
from 256
vest 255
inch 254
natural 254
up 253
ro@@ 252
thickened 252
10@@ 251
coat 251
frame 251
& 250
in@@ 249
: 248
clip 248
price 248
sexy 248
power 247
body 246
co@@ 246
face 246
protector 245
0@@ 243
pendant 243
solid 243
board 242
computer 241
adult 240
di@@ 240
lo@@ 240
slippers 240
ed 238
handmade 238
neck 238
! 236
day 236
20@@ 235
brush 235
flat 234
cap 233
art 232
foot 232
to@@ 232
buckle 231
hd 231
net 231
wall 231
thick 230
creative 229
crystal 229
* 228
necklace 228
si@@ 228
b 227
lamp 227
male 227
metal 227
at 225
decoration 225
design 225
be 224
shipment 224
all 223
quick 223
stick 223
store 223
❤ 223
green 221
mi@@ 221
al@@ 220
at@@ 220
band 220
diy 220
doll 220
filter 220
gifts 220
mat 220
n 220
slim 220
bluetooth 219
jeans 218
12@@ 217
door 215
control 214
goods 213
ti@@ 213
underwear 213
product 211
r 211
work 211
ar@@ 210
en@@ 210
eye 210
20 209
capacity 208
ers 208
le 208
made 208
mo@@ 208
short-sleeved 208
bed 207
mm 207
transparent 207
un@@ 207
cool 206
print 206
students 206
kids 205
star 205
automatic 204
business 204
rack 204
care 202
laptop 202
cm 201
american 200
handle 200
lace 200
old 200
samsung 200
towel 200
digital 199
side 199
su@@ 199
bo@@ 198
rope 198
book 197
paper 197
classic 196
coffee 196
fish 196
model 196
pro@@ 196
birthday 195
products 195
jewelry 194
wallet 194
pillow 193
stock@@ 193
" 192
30 192
line 192
vintage 192
13 191
flower 191
milk 191
chinese 190
dry 190
hi@@ 190
limited 190
be@@ 189
beauty 189
childrens 189
plate 189
st@@ 189
fitness 188
rice 188
rubber 188
switch 188
hanging 187
edition 186
elastic 186
feed 185
pink 185
square 185
cushion 184
battery 183
se 183
display 182
collar 181
couple 181
folding 181
ne@@ 181
warm 181
as@@ 180
car@@ 180
diamond 180
glasses 180
smart 180
sun 180
tube 180
v 180
low 178
or 178
essential 177
chair 176
me@@ 176
microphone 176
po@@ 176
ri@@ 176
adjustable 175
ation 175
ladies 174
motorcycle 174
night 174
ts 174
office 173
training 173
professional 172
ho@@ 171
two 171
able 170
f 170
fishing 170
q@@ 170
spray 170
sweet 170
time 170
anti-slip 169
sp@@ 169
is 168
2020 167
little 167
running 167
wood 167
% 166
con@@ 166
korea 166
wholesale 166
ab@@ 165
fresh 165
iron 165
plastic 165
cake 164
do@@ 164
heel 164
package 164
pen 164
shop 164
use 164
15@@ 163
ac@@ 163
brown 163
earrings 163
lazy 163
mesh 163
multifunctional 163
not 163
room 163
sunscreen 163
as 162
internet 162
pattern 162
us 162
xs 162
am@@ 161
painting 161
piece 161
14@@ 160
fruit 160
printed 160
replacement 160
bear 159
candy 159
go@@ 159
school 159
ma@@ 158
comfortable 157
knitted 157
same 157
wedding 157
beach 156
buy 156
tote 156
colors 155
material 155
tv 155
wide 155
generation 154
magnetic 154
man 154
50 153
blouse 153
noodles 153
pcs 153
repair 153
support 152
tablet 152
wash 152
yellow 152
bi@@ 151
moisturizing 151
button 150
seat 150
13@@ 149
16@@ 149
pe@@ 149
photo 149
you 149
front 148
gloves 148
snacks 148
toe 148
heart 147
kitchen 147
e-@@ 146
or@@ 146
pearl 146
14 145
ad@@ 145
chest 145
kit 145
leisure 145
love 145
scarf 145
trousers 145
aluminum 144
instant 144
proof 144
soap 144
｜ 144
18@@ 143
cleaner 143
get 143
makeup 143
remote 143
60@@ 142
bar 142
ear 142
gel 142
party 142
plain 142
t-@@ 142
30@@ 141
adapter 141
bottom 141
sleeves 141
ba@@ 140
rod 140
shoe 140
3d 139
european 139
fit 139
versatile 139
xr 139
hooded 138
pc 138
charger 137
house 137
network 137
te@@ 137
toilet 137
trend 137
ai@@ 136
chicken 136
good 136
ni@@ 136
rose 136
stone 136
supplies 135
tank 135
year 135
french 134
ge@@ 134
sauce 134
sh@@ 134
so@@ 134
vi@@ 134
bicycle 133
ch 133
da@@ 133
lock 133
mirror 133
ml 133
non-slip 133
medium 132
real 132
sneakers 132
ur@@ 132
15 131
alloy 131
bracket 131
desktop 131
mouse 131
pads 131
patch 131
video 131
al 130
ap@@ 130
en 130
hard 130
pocket 130
bu@@ 129
ch@@ 129
live 129
magic 129
pot 129
washing 129
android 128
half 128
ipad 128
mi 128
.@@ 127
24@@ 127
bath 127
headset 127
long-sleeved 127
yuan 127
24 126
50@@ 126
denim 126
dual 126
indoor 126
ine 126
les 126
ly 126
premium 126
tempered 126
tools 126
tops 126
25@@ 125
agent 125
embroidered 125
factory 125
flavor 125
meat 125
my 125
two-piece 125
umbrella 125
18 124
40 124
fairy 124
inches 124
no@@ 124
non-@@ 124
dried 123
fabric 123
pin 123
street 123
wheel 123
ar 122
clear 122
collection 122
s-@@ 122
11@@ 121
fragrance 121
gi@@ 121
lotion 121
rear 121
sa@@ 121
spot 121
straight 121
three 121
us@@ 121
z 121
floral 120
it@@ 120
easy 119
wooden 119
anti 118
boy 118
out 118
per 118
shampoo 118
sport 118
du@@ 117
electronic 117
king 117
mar@@ 117
gray 116
ing@@ 116
leg 116
offer 116
touch 116
ated 115
audio 115
colorful 115
four 115
kg 115
luxury 115
pi@@ 115
artifact 114
available 114
es@@ 114
outer 114
popular 114
unisex 114
wax 114
wet 114
40@@ 113
can@@ 113
decorative 113
wire 113
19@@ 112
martin 112
open 112
pa@@ 112
play 112
sole 112
th@@ 112
ang 111
discount 111
fe@@ 111
ic@@ 111
rechargeable 111
sc@@ 111
sleeveless 111
camping 110
embroidery 110
essence 110
less 110
speed 110
suction 110
00@@ 109
compatible 109
cooling 109
el@@ 109
mosquito 109
ornaments 109
★ 109
16 108
deodorant 108
hook 108
inner 108
living 108
om@@ 108
huawei 107
insole 107
lightweight 107
messenger 107
spicy 107
ankle 106
beads 106
bike 106
cabinet 106
dust 106
egg 106
high-end 106
on@@ 106
ate 105
authentic 105
fat 105
layer 105
purse 105
zipper 105
clutch 104
group 104
he@@ 104
latest 104
lu@@ 104
massage 104
plug 104
yi@@ 104
-in 103
finger 103
it 103
ke@@ 103
polo 103
5g 102
bucket 102
cu@@ 102
d-@@ 102
hole 102
hoodie 102
pu 102
2-@@ 101
british 101
christmas 101
cold 101
ment 101
rain 101
shock 101
swimsuit 101
ve@@ 101
youth 101
age 100
ds 100
min@@ 100
my@@ 100
off 100
temperature 100
vacuum 100
college 99
company 99
cr@@ 99
dark 99
glue 99
handbag 99
ko@@ 99
ling 99
sound 99
ultra 99
are 98
clean 98
facial 98
for@@ 98
ji@@ 98
me 98
perfume 98
tr@@ 98
60 97
90@@ 97
air@@ 97
base 97
ex@@ 97
jelly 97
lights 97
paste 97
raincoat 97
sterling 97
strip 97
ve 97
ag@@ 96
chi@@ 96
customized 96
device 96
direct 96
pressure 96
shape 96
slip 96
um 96
used 96
360 95
bathroom 95
cat@@ 95
chocolate 95
de 95
feet 95
ki@@ 95
way 95
without 95
25 94
foldable 94
life 94
lovers 94
micro 94
pouch 94
purchasing 94
rabbit 94
selling 94
1-@@ 93
elegant 93
la@@ 93
redmi 93
removal 93
basketball 92
coin 92
keyboard 92
liquid 92
pajamas 92
resistant 92
young 92
80@@ 91
best 91
celebrity 91
crossbody 91
fake 91
gu@@ 91
niche 91
people 91
pre@@ 91
sm@@ 91
toothbrush 91
17@@ 90
bedroom 90
blanket 90
bow 90
carbon 90
cards 90
cut 90
equipment 90
fo@@ 90
hollow 90
mother 90
mouth 90
-inch 89
200@@ 89
bar@@ 89
building 89
extra 89
hu@@ 89
mu@@ 89
multicolor 89
personality 89
shi@@ 89
yoga 89
beautiful 88
ge 88
golf 88
guitar 88
heels 88
hong 88
jersey 88
speaker 88
ted 88
um@@ 88
3-@@ 87
animal 87
anti-drop 87
block 87
el 87
golden 87
grade 87
kong 87
logo 87
manicure 87
ps 87
snack 87
woven 87
years 87
100@@ 86
dogs 86
down 86
parts 86
roll 86
sea 86
wifi 86
wool 86
cor@@ 85
fi@@ 85
fiber 85
knife 85
ls 85
luggage 85
mount 85
plush 85
sewing 85
80 84
canon 84
floor 84
guard 84
instrument 84
stocks 84
tire 84
ul@@ 84
ant 83
anti-collision 83
br@@ 83
exclusive 83
lucky 83
ns 83
order 83
sofa 83
_ 82
ak@@ 82
disposable 82
li 82
look 82
pen@@ 82
thermal 82
wa@@ 82
21 81
all-inclusive 81
ang@@ 81
ator 81
belly 81
cropped 81
dr@@ 81
second 81
shrimp 81
wind 81
ce@@ 80
corner 80
der 80
desk 80
durable 80
heat 80
man@@ 80
newborn 80
q 80
shower 80
sling 80
south 80
th 80
wristband 80
che@@ 79
cross 79
ding 79
flo@@ 79
hip 79
letter 79
middle 79
tie 79
wing 79
4g 78
au@@ 78
cleansing 78
code 78
driving 78
handsome 78
invisible 78
multi-@@ 78
one-piece 78
per@@ 78
picture 78
pullover 78
remover 78
sun@@ 78
wear-resistant 78
2022@@ 77
arm 77
em@@ 77
family 77
fire 77
nylon 77
oppo 77
personalized 77
purchase 77
ra@@ 77
sho@@ 77
supply 77
wipes 77
auto 76
ci@@ 76
edge 76
first 76
go 76
maternity 76
multi-functional 76
pencil 76
ss@@ 76
sugar 76
temperament 76
turtle 76
whole 76
xl 76
bright 75
dragon 75
football 75
fu@@ 75
hiking 75
malaysia 75
oc@@ 75
official 75
protein 75
soup 75
ta@@ 75
ting 75
class 74
cycling 74
days 74
handheld 74
helmet 74
knit 74
mountain 74
op@@ 74
qu@@ 74
security 74
self-@@ 74
sony 74
str@@ 74
suits 74
tissue 74
v-neck 74
’ 74
co 73
ed@@ 73
elderly 73
har@@ 73
ite 73
ke 73
let 73
level 73
monitor 73
mp@@ 73
only 73
pan@@ 73
plant 73
st 73
strong 73
tri@@ 73
vehicle 73
weight 73
action 72
ber@@ 72
bowl 72
cho@@ 72
deep 72
drink 72
galaxy 72
gaming 72
imported 72
more 72
packaging 72
polish 72
purple 72
sleeping 72
striped 72
sunglasses 72
tag 72
three-@@ 72
velvet 72
23@@ 71
bird 71
charge 71
drop 71
fried 71
gr@@ 71
influencer 71
invoice 71
ji 71
kasut 71
lcd 71
lip 71
ss 71
stretch 71
sunshade 71
uniform 71
value 71
your 71
0 70
24h 70
70 70
acid 70
data 70
fine 70
grey 70
mat@@ 70
music 70
ons 70
plaid 70
sheet 70
ter 70
tt@@ 70
washable 70
western 70
cardigan 69
china 69
cowhide 69
fleece 69
knee 69
ma 69
ornament 69
scooter 69
ste@@ 69
thick-soled 69
tortoise 69
whitening 69
wi@@ 69
window 69
$ 68
35@@ 68
bra 68
cats 68
date 68
disney 68
dryer 68
duck 68
foam 68
fr@@ 68
mon@@ 68
vision 68
wrist 68
yi 68
90 67
alcohol 67
ating 67
ca@@ 67
ck 67
copper 67
dedicated 67
gh@@ 67
heating 67
j 67
length 67
military 67
packs 67
sales 67
sets 67
shirts 67
ster 67
tree 67
ultra-thin 67
ver@@ 67
2019 66
controller 66
daily 66
diaper 66
earphone 66
figure 66
gun 66
health 66
honey 66
ler 66
puzzle 66
shaped 66
straps 66
suitcase 66
wrap 66
xi@@ 66
⭐ 66
4k 65
70@@ 65
da 65
disc 65
fence 65
grass 65
leggings 65
linen 65
mm@@ 65
mug 65
pl@@ 65
printing 65
quilt 65
selfie 65
tee 65
ten@@ 65
tu@@ 65
viral 65
-proof 64
22 64
a-@@ 64
ai 64
child 64
disk 64
ha@@ 64
jo@@ 64
lady 64
maintenance 64
number 64
rings 64
uv 64
we@@ 64
38@@ 63
abstract 63
acrylic 63
anime 63
bean 63
bottoming 63
boutique 63
cosmetic 63
energy 63
high-@@ 63
jumpsuit 63
ll@@ 63
loafers 63
matte 63
navy 63
nike 63
pair 63
pets 63
qi@@ 63
sand 63
sense 63
tail 63
tone 63
ut@@ 63
wei@@ 63
17 62
connector 62
couples 62
cre@@ 62
extension 62
grip 62
lite 62
meal 62
puff 62
slimming 62
son 62
texture 62
tion 62
windproof 62
1080p 61
32 61
als 61
blocks 61
chiffon 61
dance 61
ent 61
g-@@ 61
la 61
ph@@ 61
ru@@ 61
scratch 61
ship 61
sk@@ 61
traditional 61
warranty 61
wild 61
wired 61
yu@@ 61
28@@ 60
5-@@ 60
500@@ 60
angle 60
blo@@ 60
bone 60
candle 60
console 60
gear 60
happy 60
ka 60
korean-style 60
l-@@ 60
moon 60
p-@@ 60
pointed 60
potato 60
pvc 60
raw 60
tiger 60
tripod 60
ty 60
32@@ 59
am 59
breast 59
bur@@ 59
ce 59
cheese 59
cleanser 59
do 59
flip 59
jade 59
ks 59
ku@@ 59
pull 59
riding 59
snow 59
sweat 59
tide 59
y-@@ 59
35 58
66 58
america 58
av@@ 58
cookies 58
decor 58
double-sided 58
general 58
hand@@ 58
herbal 58
insulation 58
lovely 58
manual 58
needle 58
nordic 58
notebook 58
princess 58
quick-drying 58
sh 58
shopping 58
socket 58
ta 58
thread 58
ts@@ 58
xiao@@ 58
6-@@ 57
absorbent 57
baseball 57
boat 57
city 57
drying 57
f-@@ 57
frosted 57
gb 57
gen@@ 57
kindergarten 57
modern 57
ong 57
oz 57
panties 57
player 57
pump 57
sli@@ 57
string 57
surface 57
system 57
ter@@ 57
two-@@ 57
ver 57
yo@@ 57
ze 57
bubble 56
ca 56
ck@@ 56
com@@ 56
den@@ 56
early 56
full-@@ 56
ink 56
je@@ 56
label 56
mini@@ 56
ms 56
multi-function 56
new@@ 56
note 56
nozzle 56
ny 56
over 56
over@@ 56
par@@ 56
pregnant 56
private 56
reflective 56
ren@@ 56
slimmer 56
ty@@ 56
type-c 56
vegetable 56
ya 56
23 55
36@@ 55
a-line 55
arrival 55
bank 55
comb 55
cooking 55
cy@@ 55
flash 55
four-@@ 55
games 55
garden 55
infant 55
ings 55
large-capacity 55
pp@@ 55
recorder 55
standard 55
tape 55
wine 55
200 54
300@@ 54
4-@@ 54
anti-fall 54
area 54
baking 54
basket 54
bell 54
conditioning 54
core 54
exercise 54
fall 54
five 54
hand-@@ 54
heavy 54
heightening 54
host 54
keychain 54
middle-aged 54
pepper 54
pleated 54
smooth 54
sponge 54
sweatshirt 54
tic 54
up@@ 54
woman 54
-free 53
300 53
500 53
65@@ 53
99 53
english 53
et 53
headphones 53
ic 53
ii 53
learning 53
matching 53
ness 53
oxford 53
pe 53
photography 53
point 53
seal 53
suede 53
three-dimensional 53
world 53
and@@ 52
anti@@ 52
bo 52
books 52
boot 52
clo@@ 52
costume 52
craft 52
dormitory 52
funny 52
grain 52
laser 52
nails 52
nintendo 52
non 52
one-@@ 52
optional 52
pu@@ 52
re 52
repellent 52
sensor 52
sleep 52
stockings 52
te 52
vegetarian 52
zer 52
6s 51
925 51
antibacterial 51
ast@@ 51
bamboo 51
bl@@ 51
bread 51
briefs 51
ceramic 51
club 51
et@@ 51
frozen 51
ka@@ 51
medical 51
mil@@ 51
nest 51
nwt 51
orange 51
peach 51
performance 51
pipe 51
refrigerator 51
salt 51
seller 51
send 51
shield 51
slr 51
sto@@ 51
stool 51
tooth 51
trolley 51
uni@@ 51
w-@@ 51
absorption 50
accessory 50
ali@@ 50
applicable 50
aquarium 50
ary 50
black@@ 50
clearance 50
cord 50
custom 50
der@@ 50
dining 50
engine 50
flowers 50
ft 50
garlic 50
headphone 50
intelligent 50
iphone12 50
ju@@ 50
lotus 50
name 50
ping 50
plated 50
projector 50
safe 50
space 50
stereo 50
straw 50
t-shirts 50
titanium 50
triangle 50
wn 50
☆ 50
26@@ 49
55@@ 49
ach@@ 49
adhesive 49
back@@ 49
covers 49
exchange 49
ginger 49
ia 49
lanyard 49
leaf 49
luminous 49
opening 49
organizer 49
paint 49
pd 49
polyester 49
purifier 49
roller 49
solution 49
unlimited 49
valentine 49
1000@@ 48
bedside 48
boxes 48
cal@@ 48
cas@@ 48
clamp 48
cow 48
dy 48
feeling 48
fixed 48
ies 48
lenovo 48
lin@@ 48
ll 48
m-@@ 48
money 48
muscle 48
ne 48
nose 48
promotion 48
seamless 48
strawberry 48
sub@@ 48
tor 48
welcome 48
1.@@ 47
3m 47
ad 47
all-@@ 47
ance 47
ancient 47
bead 47
bel@@ 47
butterfly 47
c-@@ 47
cheap 47
fun 47
great 47
inflatable 47
lin 47
low-@@ 47
medicine 47
ous 47
perfect 47
radio 47
razor 47
release 47
teddy 47
ties 47
45 46
48@@ 46
ao@@ 46
asus 46
background 46
bikini 46
bottles 46
boxer 46
bro@@ 46
charm 46
chili 46
cosplay 46
cutting 46
effect 46
handy 46
high-quality 46
id 46
ko 46
organic 46
pedal 46
pho@@ 46
sesame 46
shipped 46
shockproof 46
so 46
steam 46
sur@@ 46
toddler 46
tray 46
ying 46
.5 45
65 45
bag@@ 45
beef 45
blade 45
bre@@ 45
cage 45
conditioner 45
container 45
degree 45
detachable 45
double-@@ 45
dream 45
end 45
flying 45
fold 45
gro@@ 45
hours 45
ink@@ 45
insoles 45
lipstick 45
litter 45
macbook 45
mark 45
meter 45
mop 45
motor 45
panel 45
pre-order 45
reusable 45
sell 45
sky 45
styles 45
ten 45
ven@@ 45
volume 45
vr 45
wardrobe 45
46 44
alarm 44
ao 44
bio@@ 44
cam@@ 44
char@@ 44
ct 44
drawing 44
educational 44
feeder 44
ff@@ 44
fl@@ 44
focus 44
k-@@ 44
lace-up 44
lingerie 44
ning 44
nursing 44
one-shoulder 44
parrot 44
recommended 44
relief 44
screw 44
song 44
swimming 44
22@@ 43
50ml 43
a7@@ 43
bib 43
bs 43
carry 43
cd 43
commercial 43
convenient 43
dis@@ 43
dish 43
drive 43
famous 43
force 43
gre@@ 43
healthy 43
high-top 43
internal 43
labor 43
lan@@ 43
lelaki 43
lid 43
liner 43
local 43
match 43
nordstrom 43
out@@ 43
pool 43
pop 43
prevention 43
props 43
scale 43
sen@@ 43
sim 43
tai@@ 43
tennis 43
truck 43
vo@@ 43
wo@@ 43
zing 43
2pcs 42
36 42
500ml 42
67 42
75@@ 42
ations 42
ble@@ 42
cab@@ 42
colo@@ 42
colored 42
costco 42
cur@@ 42
dad 42
drain 42
feather 42
feng 42
fil@@ 42
fin@@ 42
formal 42
ger@@ 42
hdmi 42
her@@ 42
honda 42
ical 42
ion 42
kin@@ 42
land 42
lemon 42
locomotive 42
magnet 42
mer@@ 42
mid 42
mixed 42
online 42
os 42
play@@ 42
plum 42
primary 42
road 42
sale@@ 42
ser@@ 42
shelf 42
simulation 42
six 42
sl@@ 42
split 42
star@@ 42
stationery 42
transmission 42
tur@@ 42
v-@@ 42
vertical 42
vivo 42
watches 42
wave 42
ws 42
x-@@ 42
-style 41
100g 41
100ml 41
69 41
adults 41
airpods 41
ana 41
ate@@ 41
ati@@ 41
badminton 41
bb@@ 41
bmw 41
breakfast 41
capsules 41
charcoal 41
clock 41
combination 41
delicious 41
diving 41
drill 41
foreign 41
framed 41
fu 41
ga 41
gs 41
lam@@ 41
lego 41
lunch 41
making 41
mas@@ 41
mp 41
nor@@ 41
outside 41
overalls 41
pan 41
pig 41
prepaid 41
ps4 41
removable 41
rotating 41
self 41
shot 41
sting 41
stop 41
streaming 41
telescopic 41
tro@@ 41
valve 41
ves 41
wide-leg 41
'@@ 40
2018 40
27@@ 40
active 40
album 40
antique 40
ats 40
aw@@ 40
basin 40
bri@@ 40
brushed 40
change 40
ct@@ 40
dc 40
diapers 40
dinosaur 40
ear@@ 40
feeding 40
finished 40
gar@@ 40
gas 40
gauze 40
gown 40
hair@@ 40
in-@@ 40
jia 40
ker 40
laundry 40
lighting 40
ly@@ 40
mei 40
mickey 40
micro@@ 40
multi 40
note@@ 40
removing 40
resin 40
rock 40
satin 40
speci@@ 40
spoon 40
this 40
under@@ 40
ung 40
ure 40
wearable 40
within 40
zz@@ 40
⚡ 40
150 39
28 39
88@@ 39
ant@@ 39
apply 39
attached 39
balm 39
basic 39
biscuits 39
coupon 39
cover@@ 39
cro@@ 39
ded 39
entry 39
fer@@ 39
friends 39
fully 39
han 39
horn 39
international 39
ity 39
lat@@ 39
latex 39
mic 39
minimalist 39
mold 39
mushroom 39
noise 39
od@@ 39
outlet 39
pat@@ 39
port 39
rhinestone 39
ry 39
sco@@ 39
seasons 39
shooting 39
sm 39
suspender 39
taste 39
tho@@ 39
very 39
watchband 39
wh@@ 39
ys 39
0-@@ 38
0.@@ 38
01 38
33 38
50g 38
access 38
acne 38
ain 38
ak 38
ally 38
ans 38
carry-on 38
cctv 38
cen@@ 38
changing 38
cherry 38
clips 38
coconut 38
drawer 38
drawstring 38
emperors 38
ery 38
feel 38
function 38
height 38
hot@@ 38
i7 38
import 38
included 38
induction 38
industrial 38
inter@@ 38
jin 38
ky 38
lee 38
like 38
men@@ 38
modified 38
nutrition 38
oi@@ 38
phones 38
ra 38
racing 38
reduction 38
sanitary 38
scissors 38
section 38
ses 38
teeth 38
tent 38
that 38
toyota 38
water@@ 38
what 38
word 38
-piece 37
.5@@ 37
19 37
2.@@ 37
202@@ 37
7-@@ 37
99@@ 37
ace@@ 37
al-@@ 37
berry 37
brake 37
cap@@ 37
cars 37
cases 37
cc 37
ched 37
cli@@ 37
ering 37
external 37
eyeshadow 37
fa@@ 37
faux 37
fill 37
fre@@ 37
ga@@ 37
grinder 37
head@@ 37
infrared 37
lapel 37
lifting 37
masks 37
mattress 37
modification 37
monster 37
must-have 37
ot 37
pc@@ 37
philips 37
platform 37
poster 37
realme 37
shark 37
skinny 37
sti@@ 37
suit-for-all 37
top@@ 37
tre@@ 37
ur 37
walking 37
yu 37
♥ 37
-shaped 36
05@@ 36
125 36
26 36
304 36
after 36
aid 36
baju 36
beaded 36
bee 36
ben@@ 36
boxing 36
brass 36
clay 36
ction 36
deli@@ 36
don@@ 36
dustproof 36
dye 36
ears 36
end@@ 36
fied 36
forest 36
fox 36
friendly 36
gen 36
hop 36
hp 36
i8 36
ja@@ 36
kitty 36
lab@@ 36
lo 36
mal@@ 36
palm 36
polishing 36
pri@@ 36
qi 36
queen 36
rc 36
re-@@ 36
rise 36
romper 36
salon 36
san@@ 36
schoolbag 36
seed 36
shawl 36
shopee 36
sing 36
solar 36
steamed 36
sticky 36
super@@ 36
tactical 36
tight 36
toothpaste 36
wig 36
zi@@ 36
120@@ 35
1kg 35
30ml 35
37@@ 35
400 35
48 35
500g 35
52@@ 35
8-@@ 35
adidas 35
arch 35
b-@@ 35
balls 35
bao 35
bass 35
biscuit 35
box@@ 35
braided 35
but@@ 35
cer@@ 35
character 35
clipper 35
col@@ 35
collagen 35
eng 35
ethnic 35
ets 35
festival 35
ff 35
german 35
growth 35
ine@@ 35
int@@ 35
iphone11 35
ir@@ 35
joint 35
kettle 35
kid 35
ld@@ 35
lift 35
mix 35
mo 35
most 35
oversized 35
pap@@ 35
ps@@ 35
rainbow 35
rat 35
refreshing 35
retractable 35
ry@@ 35
sheets 35
shoes@@ 35
sw@@ 35
sy@@ 35
team 35
ton 35
usb@@ 35
ut 35
view 35
watch@@ 35
will 35
xi 35
43 34
600@@ 34
all@@ 34
anti-theft 34
aromatherapy 34
ax@@ 34
ba 34
ban@@ 34
beg 34
bul@@ 34
bumper 34
cod 34
combo 34
comp@@ 34
complete 34
crop 34
dri@@ 34
dvd 34
electro@@ 34
ents 34
fitted 34
foundation 34
ful 34
gentle 34
gg@@ 34
gri@@ 34
grinding 34
hamster 34
hand-made 34
hd@@ 34
high-waisted 34
hood 34
ino 34
integrated 34
jin@@ 34
lan 34
lasting 34
legs 34
loss 34
materials 34
mechanical 34
mid-length 34
ming 34
month 34
na 34
nu@@ 34
piano 34
pork 34
reading 34
remove 34
seafood 34
sealing 34
skateboard 34
sleeved 34
snoopy 34
soccer 34
stage 34
sticks 34
tang 34
telephone 34
ters 34
various 34
xbox 34
xin 34
xin@@ 34
yyds 34
-4@@ 33
12v 33
156 33
180@@ 33
31@@ 33
42@@ 33
ada 33
agate 33
assembly 33
ater 33
auto@@ 33
ble 33
bon@@ 33
cell 33
chips 33
coating 33
comprehensive 33
contrast 33
cube 33
cul@@ 33
cylinder 33
dinner 33
dolls 33
ele@@ 33
fly 33
fore@@ 33
formula 33
gate 33
hotel 33
ley 33
massager 33
mb@@ 33
microfiber 33
models 33
national 33
ob@@ 33
pa 33
pack@@ 33
pairs 33
piercing 33
playing 33
points 33
pping 33
protect 33
push 33
que 33
recording 33
seasoning 33
sion 33
slot 33
spe@@ 33
state 33
studio 33
synthetic 33
tofu 33
ultrasonic 33
under 33
unique 33
win@@ 33
x3 33
't 32
14k 32
1pc 32
45@@ 32
75 32
abs 32
acc@@ 32
adi@@ 32
advanced 32
aged 32
ail@@ 32
anti-mosquito 32
beijing 32
camouflage 32
capsule 32
cel@@ 32
chic 32
climbing 32
covering 32
credit 32
ctive 32
eat 32
empty 32
enzyme 32
eyes 32
frequency 32
germany 32
gym 32
hairpin 32
harajuku 32
hy@@ 32
ing-@@ 32
jar 32
latte 32
lavender 32
link 32
lion 32
maker 32
mel@@ 32
meters 32
mountaineering 32
multi@@ 32
nasal 32
nut 32
parent-child 32
patches 32
powerful 32
pper 32
present 32
random 32
royal 32
selected 32
serum 32
si 32
soothing 32
stitching 32
strips 32
tan 32
to-@@ 32
war@@ 32
whey 32
wor@@ 32
working 32
1000 31
31 31
61 31
66@@ 31
68 31
85@@ 31
ani@@ 31
ative 31
boo@@ 31
by@@ 31
cam 31
carrying 31
cle@@ 31
compact 31
cross-body 31
exquisite 31
five-@@ 31
good@@ 31
he 31
high@@ 31
honor 31
ip@@ 31
just 31
len@@ 31
lla 31
memory 31
miss 31
mom 31
mud 31
outing 31
photo@@ 31
plug-in 31
pockets 31
rich 31
root 31
s925 31
sam@@ 31
sand@@ 31
scalp 31
seeds 31
sex 31
shade 31
tablets 31
tassel 31
teaching 31
test 31
thi@@ 31
ton@@ 31
ub@@ 31
ving 31
well 31
worn 31
xiang 31
zhang 31
zircon 31
34 30
35mm 30
62 30
ami 30
amp@@ 30
any 30
arti@@ 30
az@@ 30
baotou 30
beans 30
ber 30
booster 30
built-in 30
bulb 30
carpet 30
carrier 30
circle 30
compression 30
contact 30
correction 30
cri@@ 30
curtain 30
den 30
dji 30
dro@@ 30
dslr 30
eau 30
est 30
flared 30
flavors 30
fun@@ 30
god 30
half-@@ 30
home@@ 30
ig@@ 30
interior 30
iphone13 30
iphone@@ 30
is@@ 30
jing@@ 30
leopard 30
long@@ 30
mah 30
mousse 30
mute 30
nano 30
noodle 30
nude 30
ong@@ 30
optical 30
pad@@ 30
pain 30
peanut 30
place 30
por@@ 30
practical 30
rai@@ 30
rearview 30
ribbon 30
scented 30
shadow 30
sour 30
standing 30
steering 30
story 30
stu@@ 30
stylish 30
tai 30
tattoo 30
telecom 30
tin 30
un 30
underpants 30
university 30
upgraded 30
vip 30
vitamin 30
wan@@ 30
-resistant 29
39 29
39@@ 29
43@@ 29
55 29
800@@ 29
8plus 29
babies 29
balance 29
bra@@ 29
buddha 29
canned 29
ceiling 29
ches 29
chin@@ 29
coach 29
cra@@ 29
crispy 29
cti@@ 29
customization 29
dam@@ 29
decorations 29
dell 29
di 29
elbow 29
eos 29
era 29
flag 29
fortune 29
glitter 29
halloween 29
holiday 29
homemade 29
hose 29
hydrating 29
ie 29
inside 29
key@@ 29
license 29
many 29
mer 29
ml@@ 29
multi-purpose 29
need 29
new-style 29
north 29
nourishing 29
now 29
off@@ 29
other 29
outfit 29
press 29
ps5 29
quartz 29
ram 29
rest 29
restaurant 29
shi 29
single-@@ 29
slim-fit 29
soil 29
stiletto 29
swing 29
tableware 29
take 29
thailand 29
tis 29
tive 29
tpu 29
track 29
treats 29
true 29
tshirt 29
vinyl 29
voice 29
ware 29
water-@@ 29
whi@@ 29
wolf 29
ye@@ 29
ze@@ 29
， 29
10ml 28
110@@ 28
200g 28
2s 28
42 28
72@@ 28
9-@@ 28
95 28
; 28
amplifier 28
ard 28
barbecue 28
bun 28
cakes 28
calcium 28
camisole 28
cans 28
cer 28
chan@@ 28
comm@@ 28
construction 28
converter 28
coral 28
cordless 28
cut@@ 28
drum 28
earring 28
element 28
eng@@ 28
est@@ 28
eva 28
fans 28
fe 28
field 28
flashlight 28
fog 28
furniture 28
gopro 28
graduation 28
gt 28
hanger 28
hardware 28
horse 28
jigsaw 28
jogging 28
juice 28
lac@@ 28
len 28
long-@@ 28
long-lasting 28
lus 28
make 28
marvel 28
mint 28
modeling 28
multiple 28
n-@@ 28
on-@@ 28
painted 28
parking 28
peripheral 28
picnic 28
pol@@ 28
ren 28
resistance 28
ric@@ 28
right 28
ron 28
sal@@ 28
sat@@ 28
sp 28
starbucks 28
stepping 28
stitch 28
sty@@ 28
su 28
technology 28
times 28
today 28
united 28
upgrade 28
vel@@ 28
wash@@ 28
wheels 28
zu@@ 28
27 27
41 27
7-11 27
absorbing 27
ac 27
ach 27
ack 27
af@@ 27
ah 27
aqu@@ 27
artificial 27
away 27
band@@ 27
bbq 27
bit 27
bracelets 27
ces 27
cocoa 27
colour 27
concealer 27
country 27
del@@ 27
des 27
dual-purpose 27
duty 27
eg@@ 27
ens 27
extended 27
far@@ 27
felt 27
fitting 27
flow 27
frames 27
glow 27
grid 27
ham@@ 27
han@@ 27
handlebar 27
harem 27
heater 27
high-speed 27
human 27
insulated 27
italian 27
its 27
jackets 27
jean 27
ker@@ 27
ki 27
lar@@ 27
lowest 27
mac@@ 27
marble 27
mit 27
months 27
nan@@ 27
ner 27
ors 27
packed 27
packing 27
panda 27
pick 27
pin@@ 27
pineapple 27
practice 27
printer 27
quest 27
receiver 27
season 27
shaver 27
six-@@ 27
sizes 27
squ@@ 27
stay 27
stri@@ 27
styling 27
thai 27
third 27
throw 27
tom@@ 27
tra@@ 27
treatment 27
types 27
wedges 27
yang 27
zoom 27
21@@ 26
250ml 26
30g 26
5ml 26
600 26
87@@ 26
ank@@ 26
ari@@ 26
bai@@ 26
bao@@ 26
bat@@ 26
bb 26
boun@@ 26
bride 26
brightening 26
cast 26
cing 26
condition 26
connection 26
counter 26
curved 26
daisy 26
dar@@ 26
decal 26
deer 26
dire@@ 26
drinking 26
dual-use 26
education 26
evening 26
extract 26
fan@@ 26
file 26
ford 26
fragrant 26
fujifilm 26
gauge 26
geometric 26
goggles 26
graphic 26
ground 26
gt@@ 26
guaranteed 26
have 26
hot-selling 26
humidifier 26
industries 26
installation 26
ip 26
ironing 26
items 26
ladder 26
landscape 26
last 26
le-@@ 26
mad@@ 26
main 26
map 26
minutes 26
ng 26
no-@@ 26
odor 26
op 26
ore 26
pikachu 26
post@@ 26
reno@@ 26
sealed 26
second-hand 26
shaping 26
shredder@@ 26
sis 26
site 26
skipping 26
slip-on 26
soy 26
sportswear 26
stupell 26
supplement 26
thing 26
tran@@ 26
uk 26
ultra-@@ 26
use@@ 26
va 26
webcam 26
zi 26
22mm 25
250 25
38 25
400@@ 25
47@@ 25
900@@ 25
almond 25
art@@ 25
ase 25
ath@@ 25
bars 25
book@@ 25
bor@@ 25
call 25
cart 25
cereal 25
certificate 25
chanel 25
chopsticks 25
clar@@ 25
compartment 25
con 25
cooker 25
cp 25
cp@@ 25
crib 25
cross-border 25
cutter 25
diagonal 25
dial 25
dou@@ 25
dre@@ 25
drip 25
ds@@ 25
dual-@@ 25
earth 25
eating 25
epidemic 25
false 25
fits 25
flour 25
fri@@ 25
ger 25
gy@@ 25
hello 25
high-definition 25
hip-hop 25
ial 25
imitation 25
ins@@ 25
interface 25
ios 25
jk 25
kan@@ 25
leaves 25
lined 25
lux 25
mary 25
master 25
miracle 25
motion 25
musical 25
nfc 25
nic@@ 25
offer@@ 25
palette 25
park 25
perempuan 25
poco 25
pole 25
pre-@@ 25
product@@ 25
pul@@ 25
robot 25
router 25
row 25
saving 25
service 25
sha@@ 25
show 25
slices 25
sn@@ 25
sock 25
specialty 25
spi@@ 25
stor@@ 25
stress 25
than 25
timing 25
tor@@ 25
tte 25
unit 25
va@@ 25
ved 25
waistcoat 25
wall-mounted 25
wel@@ 25
wheat 25
yamaha 25
you@@ 25
zhi@@ 25
✿ 25
00 24
08@@ 24
11pro 24
120 24
2.5@@ 24
24-in 24
3c 24
4.@@ 24
700@@ 24
ages 24
ail 24
aircraft 24
all-in-one 24
backless 24
baked 24
banana 24
bathing 24
bed@@ 24
blossom 24
bt@@ 24
bundle 24
buying 24
cape 24
cargo 24
ced 24
certified 24
chip 24
clavicle 24
claw 24
color-@@ 24
compress 24
ctor 24
dc@@ 24
distressed 24
distro 24
dot 24
dra@@ 24
east 24
eight 24
ep@@ 24
ey@@ 24
eyebrow 24
fi 24
gging 24
gra@@ 24
halter 24
hel@@ 24
high-heeled 24
high-waist 24
hijab 24
hu 24
hydr@@ 24
insert 24
kinds 24
ld 24
leash 24
lli@@ 24
lover 24
market 24
mei@@ 24
mid-@@ 24
mid-tube 24
mist 24
ms@@ 24
nightdress 24
nikon 24
nuts 24
oculus 24
oh@@ 24
padded 24
pal@@ 24
panasonic 24
pant 24
part 24
pas@@ 24
pic@@ 24
plan@@ 24
probiotics 24
reptile 24
rh@@ 24
rocker 24
s. 24
sed 24
self-adhesive 24
shu@@ 24
sided 24
slo@@ 24
smo@@ 24
starry 24
subwoofer 24
sweaters 24
sy 24
sz 24
tags 24
ticket 24
trimmer 24
tumbler 24
ture 24
turtleneck 24
ure@@ 24
ute 24
wal@@ 24
web 24
wedge 24
wr@@ 24
wrapping 24
writing 24
x1 24
zip 24
✅ 24
✔ 24
2000 23
2000@@ 23
2nd 23
58@@ 23
5s 23
6i 23
98@@ 23
9t 23
a42 23
angel 23
animals 23
arrivals 23
ata 23
baby@@ 23
bacteria 23
banquet 23
bear@@ 23
blue@@ 23
body@@ 23
both 23
brick 23
butter 23
cali@@ 23
catcher 23
clippers 23
cloud 23
clu@@ 23
comfort 23
cone 23
corn 23
cosmetics 23
crafts 23
crisp 23
cy 23
dead 23
dental 23
detector 23
dew 23
difference 23
dome 23
don 23
earphones 23
f3 23
faucet 23
feng@@ 23
fication 23
flavour 23
foot@@ 23
frog 23
full-screen 23
fur 23
gh 23
gn@@ 23
gourd 23
gradient 23
grams 23
guarantee 23
h-@@ 23
headband 23
hoop 23
hua 23
hum@@ 23
i11 23
ingredients 23
irregular 23
jack 23
kits 23
knitting 23
lamb 23
light@@ 23
m3 23
mb 23
ments 23
mg 23
moisture 23
multifunction 23
ng@@ 23
ocean 23
onal 23
oral 23
outerwear 23
pacifier 23
paintings 23
password 23
physical 23
plants 23
pr@@ 23
preferred 23
ramen 23
robe 23
sapphire 23
separation 23
shan 23
sheep 23
sin@@ 23
snake 23
sprayer 23
squid 23
step 23
sters 23
sts 23
swe@@ 23
swiss 23
tendon 23
therapy 23
thicken 23
thumb 23
wa 23
ward 23
warning 23
washed 23
wat@@ 23
wiping 23
works 23
xiao 23
xxl 23
yue 23
zed 23
,@@ 22
10pcs 22
110 22
12pro 22
1m 22
250g 22
3.@@ 22
33@@ 22
44 22
46@@ 22
6.@@ 22
a31 22
a71 22
about 22
ack@@ 22
act 22
ander 22
anniversary 22
anti-scratch 22
apron 22
bas@@ 22
beige 22
bic 22
bin@@ 22
bite 22
brand-new 22
chang@@ 22
channel 22
cher 22
ching 22
cl@@ 22
colle@@ 22
combat 22
coo@@ 22
cooler 22
dd@@ 22
designer 22
desire 22
diffuser 22
dispenser 22
dom@@ 22
duo 22
dust-proof 22
eagle 22
ell 22
els 22
ence 22
envelope 22
evil 22
farm 22
fen@@ 22
fish@@ 22
fit@@ 22
fresh@@ 22
gam@@ 22
gm 22
hai@@ 22
hidden 22
hor@@ 22
in-ear 22
ini@@ 22
italy 22
jane 22
kar@@ 22
kn@@ 22
knot 22
konjac 22
ku 22
landline 22
layers 22
letters 22
lighter 22
lines 22
lining 22
loafer 22
max@@ 22
mic@@ 22
mijia 22
minnie 22
modal 22
motor@@ 22
moving 22
mulberry 22
multi-color 22
navigation 22
neck@@ 22
one-step 22
pastry 22
patchwork 22
playboy 22
pon@@ 22
pp 22
quote 22
ray 22
recommendation 22
red@@ 22
repairing 22
rs 22
rug 22
saliva 22
shading 22
shatter-resistant 22
shing 22
sign 22
silent 22
sold 22
sor@@ 22
station 22
ster@@ 22
stored 22
stripe 22
tarot 22
thermos 22
thickening 22
tial 22
tion@@ 22
tle 22
total 22
treasure 22
upper 22
ura 22
usa 22
vegan 22
vlog 22
wang 22
wearing 22
wei 22
wen@@ 22
wit@@ 22
wu 22
xl@@ 22
ye 22
yo 22
za 22
zh@@ 22
‼ 22
▪ 22
＊ 22
／ 22
02 21
060@@ 21
20g 21
20mm 21
29 21
29@@ 21
3.5mm 21
300g 21
45mm 21
64 21
72 21
78@@ 21
@ 21
amber 21
amp 21
anchor 21
any@@ 21
army 21
aroma 21
ash 21
automobile 21
bal@@ 21
bangs 21
beginner 21
beginners 21
blackberry 21
blind 21
bun@@ 21
caps 21
chi 21
cin@@ 21
commuter 21
cookie 21
cups 21
day@@ 21
dl@@ 21
dr 21
dresses 21
dressing 21
driver 21
dry@@ 21
eu@@ 21
exfoliating 21
firming 21
flexible 21
floss 21
gger 21
ght 21
hal@@ 21
hands 21
hang 21
hold 21
holes 21
hua@@ 21
hub 21
ian 21
increase 21
ked 21
lap@@ 21
league 21
left 21
legged 21
lte 21
m2 21
main@@ 21
mall 21
med 21
mit@@ 21
mr@@ 21
multi-layer 21
multi-pocket 21
necessary 21
nia 21
nine 21
one@@ 21
ory 21
peace 21
peas 21
pill 21
pins 21
polaroid 21
police 21
post 21
prayer 21
prevent 21
punching 21
punk 21
puree 21
que@@ 21
ring@@ 21
see 21
sheng 21
shiba 21
soft@@ 21
son@@ 21
spir@@ 21
steamer 21
stro@@ 21
telekung 21
there 21
tin@@ 21
trans@@ 21
transfer 21
tropical 21
ultra-light 21
urs 21
vibration 21
vo 21
wang@@ 21
washer 21
waxing 21
wu@@ 21
xia@@ 21
xing 21
yarn 21
zero 21
❗ 21
03 20
12mm 20
150@@ 20
15ml 20
16-in 20
200ml 20
24-@@ 20
4-in 20
49@@ 20
611 20
80g 20
a51 20
aa 20
absorber 20
ace 20
adjustment 20
ah@@ 20
aki 20
australia 20
automotive 20
backpacks 20
bandai 20
bay 20
buttons 20
card@@ 20
cd@@ 20
cheapest 20
chef 20
clas@@ 20
cm@@ 20
coats 20
color@@ 20
cranberry 20
cub@@ 20
culture 20
decompression 20
dessert 20
diameter 20
dice 20
dior 20
disassembly 20
disinfection 20
domestic 20
double-layer 20
dyson 20
each 20
eco-friendly 20
eggs 20
enhanced 20
erotic 20
exhaust 20
eyelash 20
fancy 20
fang 20
filling 20
flip-flops 20
foil 20
free@@ 20
fruits 20
functional 20
fy 20
gang 20
gi 20
glo@@ 20
going 20
grab 20
gram 20
gran@@ 20
greatbigcanvas 20
halal 20
hall 20
hanfu 20
hard@@ 20
hats 20
heel@@ 20
homewear 20
horizontal 20
if 20
iii 20
il@@ 20
insect 20
ipad@@ 20
jam 20
junior 20
kai@@ 20
keeping 20
king@@ 20
kite 20
late 20
lett@@ 20
lg 20
lling 20
matcha 20
mee 20
mes 20
microscope 20
miniature 20
mirrorless 20
mode 20
mon 20
mor@@ 20
muslimah 20
no.@@ 20
note10 20
novel 20
olive 20
oversize 20
pickup 20
pit@@ 20
preservation 20
range 20
reverse 20
rgb 20
ribbed 20
ro 20
rotatable 20
sa 20
sandal 20
science 20
scoop 20
scre@@ 20
se2 20
selection 20
semi-@@ 20
setting 20
seven 20
shit 20
shu 20
sin 20
sink 20
sion@@ 20
sive 20
skirts 20
slide 20
slit 20
spo@@ 20
spot@@ 20
static 20
stick@@ 20
sto 20
stroller 20
sweatpants 20
tam@@ 20
tap@@ 20
temptation 20
tender 20
the@@ 20
thousand 20
towels 20
ue 20
ust@@ 20
val@@ 20
vegetables 20
velcro 20
vio@@ 20
we 20
wipe 20
wiper 20
women@@ 20
zen@@ 20
zone 20
™ 20
❣ 20
-up 19
.5-in 19
05 19
1000ml 19
2k 19
3rd 19
40mm 19
44@@ 19
600g 19
999 19
9h 19
a1 19
a4 19
abdominal 19
ade 19
ake 19
amazon 19
amino 19
anc@@ 19
armor 19
atomi@@ 19
auxiliary 19
bab@@ 19
bands 19
baseus 19
battle 19
bento 19
bie 19
blazer 19
bowknot 19
broadcast 19
broken 19
bts 19
bullet 19
butt 19
cal 19
calf 19
cent 19
certification 19
chen@@ 19
cheng 19
choice 19
chro@@ 19
cle 19
closure 19
come 19
comple@@ 19
conservative 19
corre@@ 19
cour@@ 19
cross@@ 19
cs 19
cts 19
deal 19
degrees 19
dge 19
dian 19
dishes 19
distance 19
dol@@ 19
duffel 19
effective 19
ening 19
er-@@ 19
es-@@ 19
europe 19
fa 19
finger@@ 19
flagship 19
flavored 19
fork 19
ft@@ 19
fuji 19
ging 19
gps 19
grill 19
groom 19
her 19
herbs 19
hero 19
holding 19
holster 19
hoo@@ 19
hydro@@ 19
incense 19
isolation 19
ix 19
jian@@ 19
joy 19
jun@@ 19
karaoke 19
knitwear 19
las@@ 19
literary 19
load 19
loop 19
lot 19
low-cut 19
low@@ 19
luxurious 19
mc@@ 19
meas@@ 19
media 19
mid-heel 19
mix@@ 19
mod@@ 19
mothers 19
mounted 19
moxibustion 19
muslim 19
must 19
ned 19
nes 19
nice 19
nurse 19
our 19
oxygen 19
particles 19
pay 19
pd@@ 19
period 19
pigeon 19
platinum 19
pokemon 19
porridge 19
price@@ 19
puller 19
purpose 19
py@@ 19
racket 19
refill 19
rep@@ 19
resi@@ 19
ripped 19
roman 19
rust 19
s21 19
sd 19
se-@@ 19
sensitive 19
ser 19
sha 19
she@@ 19
shel@@ 19
shining 19
shui 19
signal 19
signature 19
sitting 19
sity 19
smoke 19
sorting 19
source 19
stars 19
stockhot 19
stove 19
stru@@ 19
sunflower 19
swi@@ 19
tele@@ 19
three-piece 19
timer 19
tip 19
tra 19
trade 19
traveling 19
twi@@ 19
twist 19
ual 19
ultimate 19
ulzzang 19
underarm 19
vga 19
visor 19
volleyball 19
waist@@ 19
win 19
wormwood 19
x2 19
--@@ 18
10-@@ 18
10.@@ 18
110v 18
14-inch 18
220@@ 18
37 18
3mm 18
5.@@ 18
5pcs 18
8p 18
92 18
a22 18
added 18
air-@@ 18
airbag 18
annual 18
app 18
ates 18
authorized 18
avi@@ 18
bad@@ 18
balcony 18
bf 18
blessing 18
bottom@@ 18
bou@@ 18
bunny 18
bus 18
but 18
cameras 18
camp 18
capac@@ 18
casio 18
cham@@ 18
check 18
chlo@@ 18
chunghwa 18
clearing 18
coil 18
competition 18
constant 18
count 18
daddy 18
delivery@@ 18
detergent 18
din 18
drag 18
dumplings 18
ei@@ 18
ekena 18
ess 18
explosion-proof 18
exterior 18
far 18
figures 18
fixing 18
flannel 18
flashing 18
fle@@ 18
fro@@ 18
ful@@ 18
girlfriends 18
guide 18
hai 18
hand-held 18
handbags 18
healing 18
hi 18
hit 18
hong@@ 18
hq@@ 18
humidity 18
i12 18
instax 18
into 18
issue 18
ita 18
iwatch 18
keep 18
ken 18
ktv 18
lenses 18
lia 18
lightning 18
ling@@ 18
lithium 18
ller 18
lutein 18
macaron 18
mam@@ 18
marine 18
mate 18
mate@@ 18
may 18
mazda 18
meng 18
millwork 18
mite 18
mk@@ 18
moisturizer 18
mullet 18
mus@@ 18
naked 18
nar@@ 18
oled 18
ori 18
oy@@ 18
pcs@@ 18
pcsset 18
pers 18
picking 18
planting 18
please 18
pneumatic 18
preppy 18
prompt 18
pur@@ 18
radiator 18
rail 18
rectangular 18
reducing 18
reno5 18
roasted 18
roe 18
rolls 18
rotation 18
sau@@ 18
scal@@ 18
sd@@ 18
secret 18
separate 18
sequins 18
shaft 18
shiny 18
singing 18
sized 18
sliding 18
slipper 18
snorkeling 18
snow@@ 18
souvenir 18
stabilizer 18
stable 18
stain 18
stand@@ 18
sterilization 18
study 18
style@@ 18
sul@@ 18
sun-@@ 18
surfing 18
tal@@ 18
tax 18
telescope 18
text 18
things 18
tiktok 18
tions 18
tit@@ 18
tong 18
trench 18
turn 18
umbrellas 18
vanilla 18
vari@@ 18
vic@@ 18
vin@@ 18
warehouse 18
watercolor 18
x6@@ 18
yan 18
zation 18
zhu@@ 18
⚠ 18
（ 18
09@@ 17
0mah 17
20w 17
30-@@ 17
400g 17
44mm 17
4th 17
526 17
5mm 17
5xl 17
67@@ 17
700 17
88 17
= 17
a5@@ 17
account 17
acoustic 17
acti@@ 17
activated 17
anti-lost 17
anti-uv 17
ap 17
ars 17
ash@@ 17
assembled 17
atmosphere 17
au 17
avengers 17
aya 17
ban 17
barrel 17
beanie 17
blend 17
blood 17
branded 17
brim 17
calorie 17
champion 17
chunky 17
cit@@ 17
clasp 17
clip-on 17
coast@@ 17
column 17
concentrated 17
confidential 17
connect 17
continuous@@ 17
converse 17
cou@@ 17
created 17
crew 17
crocodile 17
crown 17
cum@@ 17
cus@@ 17
dan 17
department 17
dong@@ 17
door@@ 17
drape 17
drone 17
dun@@ 17
dv@@ 17
entrance 17
ess@@ 17
extreme 17
extremely 17
eyelashes 17
fas@@ 17
fei@@ 17
fingerprint 17
fisherman 17
flats 17
fluffy 17
fluid 17
fluorescent 17
forever 17
frameless 17
fringe 17
gao 17
gee 17
ges 17
gillette 17
glaze 17
glossy 17
goddess 17
graph 17
hao@@ 17
headlight 17
heathered 17
heeled 17
holders 17
hour 17
ices 17
im@@ 17
in-1 17
index 17
inlaid 17
island 17
item 17
ja 17
jack@@ 17
japanese-style 17
jing 17
kain 17
ken@@ 17
kets 17
kin 17
kit@@ 17
kitten 17
large-size 17
lau@@ 17
lead 17
lei@@ 17
lls 17
lure 17
lv 17
lyric 17
mai@@ 17
maxi 17
mixer 17
movie 17
multipurpose 17
nai@@ 17
nap 17
napkin 17
narrow 17
nc@@ 17
nie 17
nightgown 17
nit@@ 17
ny@@ 17
oat 17
oli@@ 17
oni@@ 17
opener 17
ori@@ 17
oven 17
past@@ 17
pea 17
peri@@ 17
ph 17
phototherapy 17
pine 17
ping@@ 17
plat@@ 17
pooh 17
production 17
put 17
quilted 17
radi@@ 17
rag 17
rainproof 17
ram@@ 17
rate 17
rattan 17
red-@@ 17
rel@@ 17
rm@@ 17
ron@@ 17
rosemary 17
sch@@ 17
scraper 17
scratching 17
shaving 17
shreddersingle@@ 17
silica 17
sing@@ 17
ski@@ 17
skin-friendly 17
smile 17
sneaker 17
soft-soled 17
sol@@ 17
soles 17
spa 17
squirrel 17
ssed 17
stack@@ 17
stamp 17
staple 17
stitched 17
stripes 17
suit@@ 17
tan@@ 17
tang@@ 17
taro 17
tb 17
teal 17
temp@@ 17
textured 17
tf 17
thri@@ 17
tik 17
tile 17
tom 17
too 17
tooling 17
toughened 17
tour 17
town 17
tum@@ 17
tw@@ 17
undershirt 17
unicorn 17
urban 17
vacation 17
val 17
vase 17
waisted 17
walk 17
wallets 17
war 17
welding 17
winnie 17
woolen 17
workout 17
workshop 17
x7@@ 17
xiu 17
xsmax 17
xy 17
yeast 17
yin 17
yogurt 17
yuan@@ 17
} 17
♀ 17
】 17
-off 16
04 16
156@@ 16
18-@@ 16
2-pack 16
2.0 16
30-in 16
30s 16
530 16
5a 16
5d 16
610 16
85 16
8mm 16
a.@@ 16
a52 16
a72 16
ading 16
agency 16
animation 16
anti-peeping 16
app@@ 16
aquatic 16
astronaut 16
australian 16
axial 16
bait 16
bandage 16
bei@@ 16
bl 16
blender 16
bling 16
blocking 16
boost 16
bot 16
boxed 16
breastfeeding 16
bree@@ 16
bridge 16
bronze 16
brooch 16
bs@@ 16
bulk 16
burn 16
camcorder 16
campus 16
candies 16
captain 16
case@@ 16
cashmere 16
characters 16
charms 16
child@@ 16
chu 16
chu@@ 16
classi@@ 16
cnc 16
conce@@ 16
corners 16
cot 16
cowboy 16
crab 16
crash 16
crocs 16
cross-@@ 16
crotch 16
curling 16
dehumidifier 16
deodori@@ 16
deodorization 16
dic@@ 16
diet 16
distinctive 16
dock 16
does 16
dongdaemun 16
dynamic 16
ef 16
engagement 16
ent@@ 16
exp@@ 16
expansion 16
fac@@ 16
father 16
flight 16
floating 16
fm 16
form 16
france 16
gb@@ 16
giant 16
glove 16
goo@@ 16
grains 16
guar@@ 16
guards 16
half-sleeved 16
handkerchief 16
headdress 16
heads 16
highly 16
hunting 16
hx@@ 16
ica 16
ics 16
ide 16
impact 16
including 16
inten@@ 16
inu 16
ir 16
ivory 16
jerky 16
jiang 16
keyring 16
killer 16
kiss 16
lator 16
lay 16
life@@ 16
logy 16
loo@@ 16
lor 16
lt 16
lumbar 16
mac 16
mag@@ 16
makes 16
mango 16
marshmallow 16
merchandise 16
mermaid 16
mes@@ 16
modi@@ 16
moisture-proof 16
monitoring 16
movable 16
ner@@ 16
o-@@ 16
oil-@@ 16
ol 16
oper@@ 16
ortho@@ 16
patent 16
paw 16
pelapik 16
perfor@@ 16
permanent 16
person 16
personal 16
pes 16
pi 16
pillowcase 16
pla@@ 16
plu@@ 16
poly@@ 16
pomeranian 16
popcorn 16
positive 16
postpartum 16
powered 16
pressed 16
ps3 16
pull-@@ 16
punch 16
putter 16
qing 16
quality@@ 16
qui@@ 16
rac@@ 16
reduce 16
rer 16
research 16
rmb 16
ruler 16
s20 16
s8 16
scar@@ 16
shaking 16
sheath 16
shock-resistant 16
shoelaces 16
sie 16
sister 16
stereoscopic 16
stopper 16
stores 16
stream 16
stretchable 16
stud 16
stud@@ 16
sunny 16
swit@@ 16
tab 16
tab@@ 16
tar@@ 16
tat@@ 16
tech 16
tex@@ 16
through 16
ti 16
tle@@ 16
toilette 16
trainer 16
trash 16
trim 16
trouser 16
twin 16
two-in-one 16
u-shaped 16
ula 16
ured 16
using 16
valley 16
vent 16
voltage 16
wed 16
wer 16
wrapped 16
wrench 16
x4 16
yard 16
york 16
ys@@ 16
yun@@ 16
zealand 16
zhou 16
zy 16
{ 16
‍ 16
◎ 16
⭕ 16
07 15
10.5 15
10s 15
12-@@ 15
14-in 15
2.5 15
2022new 15
250@@ 15
2m 15
2x 15
3.0 15
34@@ 15
39-4@@ 15
3pro 15
47 15
4pcs 15
59@@ 15
800 15
^ 15
a32 15
a50 15
a7 15
ab 15
air-conditioning 15
ale@@ 15
alphabet 15
analog 15
anti-falling 15
anti-ultraviolet 15
armrest 15
bai 15
bang 15
beautifying 15
birds 15
break@@ 15
briefcase 15
bristles 15
buck@@ 15
bus@@ 15
cafe 15
carved 15
cement 15
center 15
cervical 15
chelsea 15
chrome 15
closed 15
com 15
condenser 15
conference 15
continuous 15
contro@@ 15
coun@@ 15
couture 15
cru@@ 15
ctional 15
ctions 15
cx@@ 15
dan@@ 15
de-@@ 15
deco 15
deluxe 15
detection 15
different 15
digi@@ 15
disp@@ 15
dollars 15
draw 15
dust@@ 15
elf 15
ella 15
elle 15
enjoy 15
ese 15
essentials 15
every 15
explosion 15
ference 15
ffe@@ 15
foo@@ 15
garbage 15
garment 15
ght-@@ 15
ghz 15
gl@@ 15
glory 15
gloss 15
grape 15
grilled 15
grocery 15
ha 15
headgear 15
hifi 15
hol@@ 15
how 15
hui@@ 15
i13 15
indian 15
ines 15
jasmine 15
jet 15
joystick 15
jumbo 15
jump 15
kam@@ 15
kee 15
kf@@ 15
kraft 15
kt 15
ky@@ 15
laun@@ 15
leak@@ 15
led@@ 15
lengthened 15
let@@ 15
lie 15
lon@@ 15
maple 15
mcdonald 15
medium-@@ 15
midi 15
mommy 15
moxa 15
mural 15
na@@ 15
nam@@ 15
nat@@ 15
net@@ 15
nets 15
nipple 15
oblique 15
obsidian 15
ok@@ 15
oms 15
onic 15
option 15
orders 15
ot@@ 15
over-the-knee 15
ow@@ 15
own 15
pajama 15
paper@@ 15
partition 15
passion 15
peaked 15
peanuts 15
peel 15
piggy 15
ple@@ 15
pore 15
positioning 15
pped 15
ppers 15
precision 15
preserved 15
prime 15
produced 15
pun@@ 15
reno 15
replace 15
reversing 15
ri 15
rub@@ 15
ruffle 15
s10 15
sailor 15
sakura 15
sample 15
sar@@ 15
sarung 15
scraping 15
seas@@ 15
sell@@ 15
semi 15
serv@@ 15
shake 15
sharp 15
shin-chan 15
sia 15
ski 15
skid 15
skull 15
slingshot 15
smartphone 15
snap 15
sons 15
spiderman 15
spor@@ 15
stra@@ 15
super-@@ 15
sushi 15
suspenders 15
swimwear 15
tablecloth 15
takeaway 15
tall 15
tch 15
temporary 15
ther@@ 15
thong 15
tips 15
tok 15
tong@@ 15
trace 15
tracking 15
tty 15
two-color 15
ud@@ 15
ural 15
variable 15
vehicles 15
vers@@ 15
vit@@ 15
was@@ 15
ways 15
wee@@ 15
windows 15
xian 15
xu@@ 15
yan@@ 15
zhen 15
zo 15
zy@@ 15
✌ 15
》 15
） 15
.. 14
001 14
13pro 14
168 14
18mm 14
20-in 14
2023 14
300ml 14
35-4@@ 14
350 14
36-in 14
360-degree 14
3g 14
40g 14
4d 14
52 14
5m 14
62@@ 14
63 14
64@@ 14
7.@@ 14
9.7 14
900 14
a21s 14
a5 14
a6@@ 14
adap@@ 14
add 14
addi@@ 14
ade@@ 14
ader 14
ain@@ 14
allen 14
alo@@ 14
also 14
ama 14
amo@@ 14
amount 14
amulet 14
antenna 14
anti-skid 14
anti-smashing 14
apple@@ 14
appli@@ 14
ara 14
are@@ 14
arm@@ 14
aser 14
asia 14
ass 14
ation@@ 14
attr@@ 14
authorization 14
bearing 14
benz 14
bit@@ 14
blu@@ 14
boarding 14
boi@@ 14
brand@@ 14
breakable 14
breathing 14
bridal 14
bulldog 14
camo 14
cand@@ 14
carto@@ 14
casing 14
cher@@ 14
circles 14
cking 14
ckle 14
cloth@@ 14
conne@@ 14
copter 14
copy 14
covered 14
crack@@ 14
crewneck 14
crisps 14
cting 14
curry 14
cushi@@ 14
custom@@ 14
demon 14
des@@ 14
design@@ 14
din@@ 14
dio 14
dio@@ 14
disc@@ 14
discoun@@ 14
dor@@ 14
dou 14
dream@@ 14
drops 14
dum@@ 14
dumpling 14
eas@@ 14
ec@@ 14
electrical 14
ema 14
emergency 14
engraved 14
ep 14
express 14
face-@@ 14
fanny 14
fast@@ 14
favors 14
fic 14
fig@@ 14
fir@@ 14
five-point 14
fix@@ 14
flat@@ 14
fting 14
g7@@ 14
gamepad 14
gan 14
gasket 14
gener@@ 14
give 14
gold-@@ 14
gr 14
gravel 14
gt2 14
hammer 14
hang@@ 14
high-grade 14
hipp@@ 14
hou@@ 14
htc 14
hur@@ 14
hz 14
i6 14
image 14
ina 14
incre@@ 14
independent 14
inf@@ 14
inged 14
inse@@ 14
ized 14
jacquard 14
japan@@ 14
kang 14
kennel 14
kic@@ 14
kl 14
km 14
knee-high 14
knight 14
knob 14
knotted 14
kom@@ 14
land@@ 14
lence 14
lets 14
lever 14
light-@@ 14
locking 14
locks 14
lou@@ 14
loudspeaker 14
luck 14
lux@@ 14
m6 14
macro 14
magazine 14
mas 14
men39s 14
mid@@ 14
morning 14
moto@@ 14
murah 14
negative 14
newest 14
nics 14
night@@ 14
non-stick 14
non-toxic 14
octopus 14
omega 14
oo 14
os@@ 14
oval 14
pedicure 14
pel@@ 14
pend@@ 14
pie 14
pit 14
pliers 14
portrait 14
pottery 14
power@@ 14
pregnancy 14
primer 14
prints 14
projection 14
psy@@ 14
ptz 14
puff@@ 14
puma 14
pumpkin 14
puppy 14
purification 14
push@@ 14
qian@@ 14
radish 14
ras@@ 14
readystock 14
receive 14
recommend 14
reli@@ 14
rim 14
rinse 14
s7 14
salesnew 14
salted 14
sandwich 14
sc 14
scope 14
scratch-resistant 14
sea@@ 14
seaweed 14
secondary 14
see-through 14
sen 14
set@@ 14
sey 14
shallow 14
sharing 14
shiseido 14
shoelace 14
shoo@@ 14
sions 14
ske@@ 14
soli@@ 14
sparkling 14
specialized 14
spices 14
spinning 14
splitter 14
sport@@ 14
ss-@@ 14
states 14
statue 14
stools 14
strappy 14
stylesnew 14
sucker 14
supermarket 14
supreme 14
surveillance 14
sweat@@ 14
syn@@ 14
tain@@ 14
taoist 14
teacher 14
teenagers 14
tension 14
tester 14
thigh 14
tian 14
tilam 14
toast 14
tooth@@ 14
top-@@ 14
tracker 14
tted 14
tub@@ 14
tun@@ 14
turning 14
turtles 14
twisted 14
tws 14
typec 14
u-@@ 14
ulation 14
uma 14
und 14
urine 14
uring 14
ush@@ 14
vers 14
ves@@ 14
vie@@ 14
vietnam 14
vir@@ 14
visual 14
voucher 14
warmer 14
wear@@ 14
week 14
whistle 14
wi 14
windshield 14
won@@ 14
wrinkles 14
x50 14
xuan 14
year-old 14
zu 14
06 13
08 13
1.5@@ 13
1200 13
120g 13
133 13
150ml 13
180 13
1a 13
22-@@ 13
220v 13
225@@ 13
24v 13
2a 13
3a 13
49 13
51@@ 13
524 13
54 13
60ml 13
6a 13
6mm 13
6pcs 13
77@@ 13
86 13
94 13
98 13
a73 13
a9 13
able@@ 13
activity 13
adventure 13
airy 13
alli@@ 13
aluminium 13
amethyst 13
anti-fog 13
anti-scal@@ 13
ards 13
arrangement 13
arrow 13
asi 13
asing 13
athletic 13
axis 13
ay 13
bare 13
batteries 13
bby 13
beetle 13
before 13
beyblade 13
blue-@@ 13
blush 13
braised 13
brazilian 13
brother 13
call@@ 13
camellia 13
carp 13
casting 13
chat 13
chess 13
cho 13
choose 13
cir@@ 13
cks 13
cla@@ 13
cles 13
clover 13
coated 13
colla@@ 13
collision 13
commodity 13
compound 13
cont@@ 13
cook@@ 13
counting 13
court 13
cpu 13
crackers 13
crane 13
crawling 13
crayon 13
culottes 13
culti@@ 13
cushions 13
cutout 13
deco@@ 13
decor@@ 13
deliver 13
diary 13
diecast 13
dish@@ 13
dit@@ 13
ds-@@ 13
duc@@ 13
dy@@ 13
dyed 13
eco 13
ee@@ 13
effici@@ 13
ei 13
electroplated 13
elephant 13
embossed 13
emp@@ 13
england 13
enhancement 13
epi@@ 13
ese@@ 13
ety 13
ever@@ 13
ex 13
excellent 13
eyelid 13
fire@@ 13
flakes 13
flare 13
flow@@ 13
fr-@@ 13
friend 13
fungus 13
fur@@ 13
fying 13
gall@@ 13
genshin 13
girl@@ 13
girlfriend 13
giving 13
gli@@ 13
glider 13
glu@@ 13
google 13
graffiti 13
gram@@ 13
graphics 13
grips 13
guang@@ 13
gui@@ 13
headwear 13
hedgehog 13
hei@@ 13
helmets 13
hem 13
hepa 13
high-power 13
hip-@@ 13
history 13
ho 13
hosp@@ 13
hp@@ 13
huang@@ 13
hun@@ 13
id@@ 13
immediate 13
inal 13
increased 13
inde@@ 13
interactive 13
introduction 13
jan@@ 13
jo 13
khaki 13
kl@@ 13
kno@@ 13
know 13
lad@@ 13
lamps 13
learn 13
lic 13
ligh@@ 13
limit 13
liters 13
lle 13
long-sleeve 13
lp 13
ly-@@ 13
m365 13
management 13
mand@@ 13
marks 13
mart 13
matting 13
may@@ 13
meeting 13
message 13
micro-@@ 13
million 13
monkey 13
mosqui@@ 13
mur@@ 13
myopia 13
native 13
nature 13
nau@@ 13
neo 13
neutral 13
note9 13
num@@ 13
off-road 13
oolong 13
operation 13
origin@@ 13
outfits 13
output 13
packet 13
particle 13
pass 13
paul 13
ped 13
pee@@ 13
pendants 13
photos 13
plating 13
pli@@ 13
plus@@ 13
pod 13
polarized 13
poncho 13
ponytail 13
porcelain 13
pper@@ 13
presbyopic 13
pressurized 13
prince 13
promax 13
puzzles 13
qing@@ 13
quantity 13
rain@@ 13
rainy 13
read@@ 13
reader 13
readystock@@ 13
recipe 13
record 13
refle@@ 13
reg@@ 13
rel 13
rely 13
res 13
rex 13
rhinestones 13
rin@@ 13
ris 13
river 13
rock@@ 13
rog 13
role 13
rot@@ 13
rough 13
run@@ 13
s2 13
sachets 13
saddle 13
sal 13
sb 13
screws 13
sensing 13
seri@@ 13
seven@@ 13
sharpener 13
shine 13
shipp@@ 13
short-@@ 13
shrink 13
sible 13
slip-ons 13
smoothing 13
smulticolor 13
snail 13
snap@@ 13
sonic 13
sound@@ 13
spaghetti 13
spice 13
spider-man 13
spirit 13
sta@@ 13
steak 13
strapless 13
supp@@ 13
suppor@@ 13
suspension 13
sweeping 13
swivel 13
sword 13
taichung 13
tak@@ 13
tangan 13
thic 13
tickets 13
tional 13
tn@@ 13
tongue 13
tos 13
tower 13
tp-@@ 13
traffic 13
tric@@ 13
triple 13
tw 13
ua 13
ult 13
und@@ 13
upright 13
urinal 13
uv@@ 13
van@@ 13
vation 13
vely 13
vera 13
villa 13
vivo@@ 13
vol@@ 13
weighing 13
west 13
wetsuit 13
wide-legged 13
wild@@ 13
wings 13
wood@@ 13
words 13
x7 13
xt 13
xx@@ 13
yel@@ 13
zen 13
zodiac 13
® 13
→ 13
◆ 13
● 13
☀ 13
♡ 13
-made 12
-type 12
10.2 12
100pcs 12
105@@ 12
108 12
1080@@ 12
10x 12
11x@@ 12
13.3 12
130@@ 12
133@@ 12
160 12
240@@ 12
25mm 12
2mp 12
30x@@ 12
350@@ 12
42mm 12
51 12
5c 12
5w@@ 12
610@@ 12
7-inch 12
78 12
7plus 12
8k 12
97 12
a20 12
a3 12
a53 12
a70 12
abalone 12
acting 12
aded 12
ae@@ 12
aly@@ 12
amazfit 12
amphibi@@ 12
angeles 12
anti-blue 12
armani 12
around 12
asp@@ 12
av 12
avocado 12
backpack@@ 12
bak 12
ballo@@ 12
bat 12
bedding 12
beverage 12
binding 12
blueberry 12
bobb@@ 12
bodysuit 12
bolt 12
booties 12
bott@@ 12
boyfriend 12
br 12
brace 12
brands 12
bre 12
breath@@ 12
bu 12
burning 12
burst 12
c3 12
calendar 12
caramel 12
cc@@ 12
cellphone 12
cha@@ 12
chang 12
chen 12
chers 12
chy 12
classical 12
classy 12
close 12
cole 12
coloring 12
combed 12
cotton-@@ 12
course 12
coverage 12
cream@@ 12
ct. 12
cultural 12
cutlery 12
cx-@@ 12
dai@@ 12
dant 12
ders 12
down@@ 12
dresser 12
eastone 12
ef@@ 12
eless 12
eli@@ 12
elite 12
ely 12
ended 12
ending 12
ene 12
energy-saving 12
ergonomic 12
etry 12
eve 12
every@@ 12
everyday 12
exam 12
exclu@@ 12
expres@@ 12
extender 12
fade 12
fal@@ 12
fat@@ 12
fifth 12
filled 12
fillet 12
finder 12
foaming 12
fries 12
furnishing 12
g5@@ 12
g6 12
gathered 12
gers 12
gg 12
gged 12
gift@@ 12
gimbal 12
gir@@ 12
glowing 12
gold@@ 12
grand 12
grand@@ 12
grooming 12
gua 12
gue 12
guinea 12
guo 12
hair-@@ 12
hampers 12
hand-woven 12
hb@@ 12
hdd 12
headrest 12
heart-@@ 12
heated 12
heli@@ 12
hemp 12
hi-@@ 12
hokkaido 12
hon@@ 12
hoodies 12
houndstooth 12
house@@ 12
ht 12
il 12
improve 12
int 12
intimate 12
iron@@ 12
ital 12
ito 12
joy@@ 12
jumping 12
kas@@ 12
kes 12
kung 12
kut 12
lai@@ 12
lantern 12
legal 12
legend 12
lian 12
lip@@ 12
lizard 12
llow 12
lock@@ 12
logical 12
louis 12
luffy 12
lul@@ 12
lun@@ 12
lv@@ 12
lycra 12
m-4xl 12
macy 12
maid 12
mani@@ 12
marker 12
maroon 12
mats 12
maxi@@ 12
mber 12
md@@ 12
medi@@ 12
melon 12
mid-waist 12
ming@@ 12
mirrors 12
molle 12
moon@@ 12
motif 12
mr 12
must-@@ 12
naruto 12
natur@@ 12
necklaces 12
never 12
no.1 12
normal 12
nostalgic 12
note8 12
nothing 12
oatmeal 12
oes 12
off-the-shoulder 12
offline 12
old-fashioned 12
om 12
orchid 12
page 12
palace 12
patterns 12
payment 12
peppermint 12
pet@@ 12
pillar 12
plac@@ 12
plugs 12
pods 12
pound 12
ppy 12
pre 12
preci@@ 12
pric@@ 12
protectors 12
publi@@ 12
puncture 12
recycled 12
relaxing 12
remo@@ 12
reno4 12
repe@@ 12
retail 12
rfid 12
roof 12
roth 12
round-@@ 12
salmon 12
salo@@ 12
same-day 12
sation 12
say 12
scene 12
scent 12
scratch@@ 12
script 12
secondhand 12
sel@@ 12
sele@@ 12
separ@@ 12
sequin 12
shed 12
sheng@@ 12
sher@@ 12
shutters 12
sil@@ 12
skating 12
smell 12
soled 12
spine 12
spre@@ 12
stand-up 12
sted 12
stoc@@ 12
stok 12
stre@@ 12
streng@@ 12
sty 12
sub-@@ 12
substitute 12
succulent 12
swim 12
taipei 12
tal 12
tamp@@ 12
target 12
tation 12
tel@@ 12
terry 12
thermometer 12
ting@@ 12
together 12
toiletry 12
tracksuit 12
trailer 12
transformer 12
treat 12
tri-@@ 12
trial 12
trough 12
tulle 12
u.s. 12
ug@@ 12
ultra@@ 12
uri@@ 12
ush 12
uti@@ 12
validity 12
vanity 12
ven 12
vered 12
via 12
vinegar 12
virtual 12
vy 12
waffle 12
walnut 12
wan 12
warming 12
watching 12
wh 12
wide-angle 12
windbreaker 12
winder 12
wish 12
wn@@ 12
work@@ 12
worm 12
x-large 12
yam@@ 12
youpin 12
yz@@ 12
zhi 12
✈ 12
02@@ 11
0530 11
101 11
10k 11
12-in 11
12.@@ 11
15.6 11
150g 11
18650 11
1l 11
1pcs 11
1st 11
2017 11
2020@@ 11
2021@@ 11
20cm 11
212@@ 11
2g 11
2xl 11
4x 11
5.0 11
54@@ 11
5cm 11
6.5 11
60g 11
6d 11
73 11
77 11
82 11
84@@ 11
93 11
9d 11
a14@@ 11
additives 11
adjust@@ 11
ado 11
aero@@ 11
african 11
afternoon 11
ag 11
aging 11
aj@@ 11
ala 11
allergy 11
alone 11
alpha 11
americano 11
anci@@ 11
ani 11
anion 11
ank 11
ankle-@@ 11
anti-epidemic 11
aper 11
arri@@ 11
asi@@ 11
astro@@ 11
atter@@ 11
ature 11
aurora 11
authenti@@ 11
available@@ 11
awesome 11
bali 11
barber 11
bathtub 11
beaut@@ 11
bella 11
belt@@ 11
bench 11
best@@ 11
bill 11
billiard 11
bing 11
blackout 11
blan@@ 11
blank 11
blin@@ 11
boards 11
bohemian 11
born 11
bran@@ 11
break 11
breasts 11
breath 11
brushless 11
buff@@ 11
bump 11
burger 11
burner 11
carton 11
cash 11
cassette 11
ccd 11
cel 11
celebration 11
central 11
chalcedony 11
char 11
checkerboard 11
cheongsam 11
chestnut 11
chicos 11
children39s 11
ciao 11
cigarette 11
circuit 11
civic 11
clean@@ 11
clin@@ 11
cold-proof 11
collecti@@ 11
collectible 11
combin@@ 11
comforter 11
commemorative 11
commun@@ 11
conden@@ 11
connected 11
contracted 11
convenience 11
cooper@@ 11
corset 11
cos@@ 11
crazy 11
curlers 11
curly 11
current 11
cycle 11
d. 11
daughter 11
ddy 11
dea 11
dec@@ 11
definition 11
dete@@ 11
development 11
diamond-@@ 11
die 11
dig@@ 11
distribution 11
divi@@ 11
dle 11
dong 11
doraemon 11
dove 11
drinks 11
drop-proof 11
earbuds 11
east@@ 11
eb@@ 11
edi@@ 11
ek 11
electroplating 11
elimin@@ 11
emerald 11
engineering 11
engraving 11
enlarged 11
environmental 11
environmentally 11
ered 11
esports 11
etr@@ 11
eucalyptus 11
event 11
expiry 11
exposed 11
falling 11
fei 11
finish 11
finishing 11
fittings 11
fix 11
flamingo 11
flask 11
fli@@ 11
fold@@ 11
foods 11
fra@@ 11
freezer 11
freshwater 11
fted 11
fuel 11
fut@@ 11
game@@ 11
gel@@ 11
geo@@ 11
ggle 11
ghua 11
girly 11
glut@@ 11
gluten 11
good-looking 11
gor@@ 11
graceful 11
guest 11
gun@@ 11
gurashi 11
hadiah 11
handles 11
hao 11
harness 11
hen@@ 11
heng@@ 11
herb 11
hexag@@ 11
hill 11
hq 11
hud 11
hydraulic 11
hydrogel 11
identification 11
ido@@ 11
ili@@ 11
illustration 11
imp@@ 11
in. 11
infin@@ 11
infl@@ 11
injection 11
inser@@ 11
inspirational 11
ire 11
ited 11
ith 11
j-@@ 11
james 11
jen@@ 11
jian 11
john@@ 11
kai 11
kangaroo 11
kobe 11
lee@@ 11
lies 11
liqu@@ 11
lly 11
logitech 11
lolita 11
los 11
low-top 11
luo 11
lut@@ 11
machines 11
magic@@ 11
magne@@ 11
manufacturer 11
medium-sized 11
mem@@ 11
middle-@@ 11
mind 11
mineral 11
mir@@ 11
mlb 11
mobi@@ 11
model@@ 11
moi@@ 11
moissanite 11
moonlight 11
moul@@ 11
move 11
muff@@ 11
muffin 11
mul@@ 11
mustard 11
nas@@ 11
nike@@ 11
nin@@ 11
nine-@@ 11
nograph 11
nokia 11
non-woven 11
nutri@@ 11
nutritional 11
oil-proof 11
ok 11
ometer 11
oral-b 11
orig@@ 11
osmo 11
otg 11
outdoors 11
paris 11
pat 11
pci@@ 11
pens 11
perf@@ 11
perfe@@ 11
phi@@ 11
phoenix 11
pl 11
playpen 11
po 11
pokémon 11
polka 11
pom 11
pom@@ 11
ports 11
promo@@ 11
ption 11
public 11
pupp@@ 11
qazso766 11
qiao 11
quiet 11
quil@@ 11
r1 11
rack@@ 11
racks 11
rayon 11
realme@@ 11
reduc@@ 11
reel 11
regular 11
relaxed 11
relieve 11
republic 11
rier 11
rods 11
rolled 11
rom 11
rou@@ 11
rubbing 11
rv 11
s-2xl 11
s22 11
sab@@ 11
sage 11
sap@@ 11
scand@@ 11
school@@ 11
sci@@ 11
seaside 11
second-@@ 11
set-@@ 11
shar@@ 11
shelves 11
shen 11
shin@@ 11
ship@@ 11
shock-absorbing 11
shock@@ 11
short@@ 11
shr@@ 11
sides 11
silky 11
sit 11
slayer 11
sleep@@ 11
slots 11
soda 11
soft-@@ 11
softening 11
sou@@ 11
spacer 11
speakers 11
speed@@ 11
spic@@ 11
spin@@ 11
splash@@ 11
spots 11
spro@@ 11
starch 11
stic 11
stic@@ 11
stle 11
stomach 11
ston 11
storm 11
strength 11
stuffed 11
surprise 11
surrounding 11
sweat-absorbent 11
sweat-absorbing 11
t.w. 11
t4@@ 11
tail@@ 11
tain 11
talk 11
telephoto 11
terminal 11
tex 11
thank 11
theater 11
theme 11
thin@@ 11
tier 11
tiered 11
toddlers 11
tonic 11
tool@@ 11
tote@@ 11
train@@ 11
transmitter 11
tus 11
two-way 11
type@@ 11
uba 11
ultraviolet 11
ures 11
ve-@@ 11
venti@@ 11
vince 11
vitality 11
vity 11
watering 11
weather 11
website 11
when 11
who 11
whole@@ 11
wicking 11
wind@@ 11
wir@@ 11
wiring 11
witch 11
x0@@ 11
x12 11
xia 11
xiang@@ 11
xt@@ 11
xy@@ 11
yards 11
ying@@ 11
zara 11
zinc 11
zo@@ 11
× 11
• 11
► 11
☃ 11
❀ 11
㊣ 11
-t@@ 10
.5cm 10
09 10
1.5 10
10g 10
10t 10
11-in 10
115 10
1200@@ 10
12mini 10
13-@@ 10
15m 10
1s 10
2.4g 10
240 10
299 10
2kg 10
2l 10
3000 10
41mm 10
420@@ 10
46mm 10
4a 10
4in1 10
4mm 10
4s 10
4xl 10
501 10
50pcs 10
512@@ 10
57 10
5l 10
5mp 10
5pro 10
79@@ 10
8.@@ 10
8s 10
8t 10
91 10
96@@ 10
above 10
acer 10
aces 10
acu@@ 10
acy 10
adle 10
ado@@ 10
aerial 10
airplane 10
ala@@ 10
alkali 10
alysis 10
ame 10
ancer 10
and-@@ 10
ands 10
anese 10
ange 10
ano 10
anti-aging 10
ants 10
ape 10
appeti@@ 10
aro@@ 10
articles 10
artifac@@ 10
ashi 10
assi@@ 10
ath 10
ather@@ 10
ational 10
attack 10
austri@@ 10
aux 10
badge 10
baggy 10
bak@@ 10
based 10
batter@@ 10
beast 10
bells 10
bes@@ 10
bi 10
bichon 10
billi@@ 10
bir@@ 10
bitter 10
blades 10
bm@@ 10
bobo 10
boho 10
bold 10
boneless 10
bootcut 10
bound 10
boy@@ 10
brief@@ 10
brightness 10
brothers 10
bsl10-@@ 10
buckles 10
buds 10
buffer 10
bui@@ 10
bull 10
button@@ 10
camer@@ 10
canopy 10
cartridge 10
cellular 10
cha 10
chairs 10
chak@@ 10
chao 10
chart 10
check@@ 10
chemical 10
chicago 10
chilli 10
chime 10
chinchi@@ 10
cinnam@@ 10
cl 10
clear@@ 10
cock@@ 10
cocktail 10
collapsible 10
common 10
confession 10
contents 10
conve@@ 10
cook 10
cool@@ 10
corgi 10
cos 10
cost@@ 10
cot@@ 10
coupons 10
create 10
cs@@ 10
ctly 10
cue 10
curl 10
curtains 10
customi@@ 10
cutie 10
dancing 10
dap@@ 10
dashboard 10
dat@@ 10
dating 10
decorated 10
dering 10
dimensional 10
dirty 10
doc@@ 10
doctor 10
dom 10
dora 10
dp 10
dr. 10
drainage 10
drawers 10
drop@@ 10
dropper 10
dvr 10
dyn@@ 10
earl 10
egg@@ 10
eight-@@ 10
elementary 10
emul@@ 10
ened 10
enhancing 10
eper 10
ers@@ 10
ever 10
experi@@ 10
expiration 10
eyeglass 10
eyeliner 10
ez@@ 10
fart 10
fashion@@ 10
fc 10
fertili@@ 10
fighting 10
fitbit 10
fla@@ 10
flip-@@ 10
food-@@ 10
fossil 10
fryer 10
fs 10
fter 10
future 10
gal 10
gal@@ 10
gas@@ 10
gashapon 10
gat@@ 10
gecko 10
geor@@ 10
getting 10
ghost 10
ght@@ 10
ghter 10
gin@@ 10
ginseng 10
gp@@ 10
grad@@ 10
grande 10
grandma 10
green@@ 10
guy 10
guys 10
hairpins 10
hangers 10
head-up 10
headlamp 10
heat@@ 10
heaven 10
here 10
hero@@ 10
hikari 10
hinoki 10
hipster 10
his 10
hold@@ 10
honeycomb 10
hooks 10
hyaluronic 10
hybrid 10
ice@@ 10
imit@@ 10
immediately 10
imo@@ 10
inch@@ 10
industry 10
infants 10
ining 10
install 10
institute 10
insurance 10
ious 10
iphone7 10
iso@@ 10
ium 10
iwatch@@ 10
jellyfish 10
jewel@@ 10
journal 10
kel@@ 10
kerja 10
keys 10
kings 10
kk@@ 10
koi 10
l.@@ 10
lab 10
labeling 10
labels 10
lake 10
lands 10
laz@@ 10
leakage 10
lean 10
legging 10
lev@@ 10
levi 10
liang 10
liang@@ 10
lily 10
limit@@ 10
line@@ 10
lisa 10
list 10
lit@@ 10
liter 10
literature 10
lity 10
liu@@ 10
lla@@ 10
lollipop 10
lord 10
lost 10
lotte 10
loud 10
luxe 10
lychee 10
m.@@ 10
m10 10
magneti@@ 10
magnifier 10
mainline 10
make-up 10
manchester 10
mang@@ 10
mario 10
marriage 10
martens 10
meet 10
meg@@ 10
membrane 10
meng@@ 10
mill 10
min 10
mmer 10
modem 10
molar 10
morandi 10
mori 10
mouth@@ 10
mouthwash 10
mu 10
mules 10
mushrooms 10
mutton 10
navel 10
nfl 10
ni 10
nis@@ 10
nissan 10
non-fading 10
non@@ 10
note7 10
nur@@ 10
off-white 10
once 10
oning 10
onion 10
organi@@ 10
oro 10
ou@@ 10
overshoes 10
pantyhose 10
pearls 10
peng@@ 10
peony 10
percussion 10
persi@@ 10
person@@ 10
peti@@ 10
phar@@ 10
pick-up 10
pier@@ 10
playstation 10
ply 10
pm 10
poc@@ 10
pokmon 10
polished 10
pop@@ 10
porch 10
postcard 10
potter 10
pow@@ 10
preloved 10
premi@@ 10
prote@@ 10
ptcg 10
pudding 10
purplesunshine 10
qin@@ 10
qiu 10
quaker 10
r15 10
rab@@ 10
rad@@ 10
radiation 10
rang@@ 10
rapid 10
ray@@ 10
reality 10
rectangle 10
ree 10
refining 10
reinforced 10
rejuven@@ 10
rent 10
rescue 10
return 10
rhythm 10
rid 10
rit@@ 10
riz@@ 10
rj@@ 10
roast 10
romantic 10
roo@@ 10
rose@@ 10
s9 10
sang 10
sanitizer 10
sas@@ 10
satis@@ 10
save 10
scales 10
scenery 10
score 10
scrap@@ 10
scription 10
scrub 10
select 10
shaker 10
shan@@ 10
shatterproof 10
shift 10
shirt@@ 10
sho 10
shoot 10
short-sleeve 10
shoulders 10
show@@ 10
simp@@ 10
skin-@@ 10
slightly 10
slow 10
sman 10
smartwatch 10
smiley 10
soci@@ 10
social 10
soul 10
souvenirs 10
soybean 10
spy 10
ssd 10
st-@@ 10
stand-@@ 10
start 10
stin@@ 10
straight-leg 10
surf 10
swatter 10
t2 10
tag@@ 10
tast@@ 10
tees 10
temper@@ 10
tering 10
terrapin 10
tes 10
then 10
then@@ 10
third-@@ 10
three-in-one 10
three-layer 10
three-quarter 10
tian@@ 10
tights 10
timberland 10
tina 10
tiny 10
tokyo 10
tomato 10
toner 10
too@@ 10
tough 10
tp@@ 10
tr 10
trap 10
tren@@ 10
tt 10
tting 10
tuning 10
turquoise 10
tv@@ 10
tyre 10
ulator 10
ultraman 10
una 10
unds 10
uo 10
uten@@ 10
v2 10
van 10
vap@@ 10
variety 10
vehicle-mounted 10
vid 10
violent 10
violet 10
wait 10
waiting 10
wanita 10
warm@@ 10
warrior 10
wealth 10
widened 10
wigs 10
winding 10
wire@@ 10
wl@@ 10
women39s 10
woo@@ 10
workwear 10
wrist@@ 10
x6 10
x8 10
xiaohongshu 10
xx 10
yeti 10
yn@@ 10
ysl 10
yun 10
z-@@ 10
zai 10
zel 10
zhen@@ 10
zzle 10
· 10
▲ 10
☁ 10
✪ 10
丨 10
： 10
～ 10
🉑 10
🤩 10
-- 9
-0@@ 9
... 9
000 9
0526 9
06@@ 9
0mm 9
100w 9
10a 9
10inch 9
128gb 9
12promax 9
130 9
14-@@ 9
16-@@ 9
160@@ 9
16l 9
17-@@ 9
170@@ 9
190@@ 9
2-in 9
2-piece 9
201 9
230@@ 9
24-hour 9
24k 9
24mm 9
3-in-1 9
3.5 9
30mm 9
32-@@ 9
360@@ 9
36mm 9
3in1 9
3l 9
3xl 9
40-@@ 9
400ml 9
424@@ 9
480 9
4c 9
50w 9
523 9
527 9
529 9
53 9
55mm 9
56@@ 9
599 9
5v 9
6-inch 9
60w 9
6gb 9
74 9
750ml 9
7ml 9
85614462 9
86@@ 9
89@@ 9
96 9
? 9
a30 9
abdomen 9
accent 9
accep@@ 9
af 9
affordable 9
age@@ 9
aids 9
air2 9
aking 9
aled 9
allergic 9
aloe 9
alter@@ 9
altis 9
amide 9
ance@@ 9
ane 9
ann 9
ans@@ 9
antarctic 9
anthropologie 9
anti-dandruff 9
anti-dust 9
anti-fingerprint 9
anti-pinch 9
anti-shake 9
anya 9
apart@@ 9
aperture 9
appliances 9
arc 9
arcade 9
ark 9
armour 9
artisan 9
arts 9
athers 9
atic 9
ation-free 9
ave 9
ba-@@ 9
bad 9
bal 9
barley 9
bathrobe 9
beard 9
bears 9
bedsheet 9
bei 9
belts 9
berries 9
better 9
bidet 9
bing@@ 9
birth 9
biting 9
bits 9
blu-ray 9
bob 9
bookmark 9
boss 9
botan@@ 9
breast@@ 9
breasted 9
brides@@ 9
brighten 9
bristle 9
broad@@ 9
bron@@ 9
bud 9
buddhist 9
bug 9
built 9
burgundy 9
camry 9
candles 9
capo 9
carrot 9
catching 9
cation 9
chains 9
challenge 9
champagne 9
changeable 9
chao@@ 9
che 9
checked 9
chew@@ 9
chia 9
chick@@ 9
childhood 9
choker 9
chr 9
circulation 9
cker 9
cloak 9
clothes@@ 9
collarbone 9
collector 9
come@@ 9
compart@@ 9
complimentary 9
computers 9
concentrate 9
cond 9
condom 9
cons 9
consul@@ 9
contr@@ 9
cooled 9
cores 9
costumes 9
cott@@ 9
counter@@ 9
county 9
cow@@ 9
crawler 9
creamy 9
cryst@@ 9
cted 9
ctors 9
cture 9
cupboard 9
curler 9
cust@@ 9
customizable 9
cypress 9
d3 9
dale 9
dark@@ 9
dd 9
deck 9
dee@@ 9
defense 9
deformation 9
dehumidification 9
delay 9
delicate 9
designed 9
dh@@ 9
diesel 9
dimmable 9
dirt 9
disinfectant 9
dissipation 9
div@@ 9
doorbell 9
drag@@ 9
droplet 9
du 9
duction 9
dur@@ 9
during 9
easi@@ 9
edible 9
effects 9
eh@@ 9
elements 9
elev@@ 9
elong@@ 9
emperor 9
ency 9
ends 9
enh@@ 9
entertain@@ 9
erhead 9
eu 9
examination 9
excuse 9
exerci@@ 9
exfoli@@ 9
expand@@ 9
extensions 9
eye@@ 9
f14 9
fall-proof 9
fanatics 9
fantasy 9
fasci@@ 9
fashi@@ 9
fastener 9
ffy 9
fif@@ 9
fill@@ 9
first-@@ 9
flops 9
fluor@@ 9
flute 9
fo 9
formaldehyde 9
fpv 9
fragrances 9
free-@@ 9
freesia 9
freeze 9
freeze-dried 9
freight 9
g7 9
gadgets 9
gae 9
gain 9
gence 9
generations 9
gentleman 9
ghts 9
gical 9
gie 9
global 9
gourmet 9
granola 9
graph@@ 9
graphy 9
gs@@ 9
guava 9
gus 9
gyro 9
hairdressing 9
hall@@ 9
handlebars 9
harley 9
harry 9
has 9
hat@@ 9
hawaiian 9
hea 9
headlights 9
heather 9
help 9
hermes 9
hibi@@ 9
highlight 9
hk 9
horse@@ 9
hypoallergenic 9
ically 9
ice-@@ 9
icon 9
ii@@ 9
illu@@ 9
illumin@@ 9
improved 9
indi@@ 9
indu@@ 9
influen@@ 9
inno@@ 9
installment 9
instruments 9
iphone13promax 9
ipoh 9
jam@@ 9
jas@@ 9
jia@@ 9
juj@@ 9
jump@@ 9
kab@@ 9
kao 9
kick 9
kidney 9
kirkland 9
kon@@ 9
kur@@ 9
l-free 9
lala 9
landscaping 9
lane 9
larger 9
lattice 9
lay@@ 9
layered 9
legends 9
lers 9
lf@@ 9
lime 9
liverpool 9
loft 9
longboard 9
lu 9
lying 9
madness 9
mahjong 9
manu@@ 9
manufac@@ 9
map@@ 9
marc 9
mascara 9
mcdodo 9
meri@@ 9
metho@@ 9
mf@@ 9
mica 9
mid-calf 9
miss@@ 9
mk 9
mmed 9
mn 9
mn@@ 9
mod 9
module 9
mono 9
mono@@ 9
mont@@ 9
monthly 9
mounting 9
movement 9
ms-@@ 9
msia 9
mson 9
mum@@ 9
mummy 9
mx 9
named 9
napkins 9
needles 9
nel 9
neon 9
ning@@ 9
nm 9
noble 9
non-lego 9
non-staple 9
notes 9
nouri@@ 9
nt 9
obje@@ 9
od 9
odor@@ 9
ointment 9
oline 9
ology 9
ome 9
omi 9
ona 9
oni 9
open-@@ 9
options 9
or-@@ 9
ora 9
oracle 9
ore@@ 9
osmanthus 9
over-@@ 9
owned 9
ox 9
ox@@ 9
pampers 9
panoramic 9
panther 9
paradise 9
parfum 9
part@@ 9
parti@@ 9
pcb 9
pear 9
pearlescent 9
pedals 9
peptide 9
personali@@ 9
petal 9
pie@@ 9
pile 9
pillows 9
pinggang 9
pixels 9
polar 9
polari@@ 9
poli@@ 9
poly 9
pots 9
potted 9
potty 9
pou@@ 9
promo 9
pt 9
pt@@ 9
pubg 9
pulling 9
pulse 9
pumps 9
pupi@@ 9
purifying 9
qq 9
quad@@ 9
quan 9
quick-@@ 9
quicksand 9
quota 9
r-@@ 9
r17 9
rav4 9
recor@@ 9
refriger@@ 9
refurbi@@ 9
rehabilitation 9
replac@@ 9
repleni@@ 9
rhombus 9
ride 9
rider 9
ries 9
rine 9
riser 9
roc@@ 9
rol 9
rolling 9
rong 9
ruby 9
run 9
rus 9
rush 9
s3 9
s6@@ 9
s8@@ 9
safe@@ 9
sai@@ 9
sandpaper 9
scrunchi@@ 9
sculpture 9
senior 9
servation 9
sex@@ 9
sgs 9
shades 9
shap@@ 9
shapes 9
she 9
sheer 9
shment 9
shredded 9
shutter 9
sichuan 9
signboard 9
silicon 9
skates 9
sky@@ 9
smi@@ 9
sno@@ 9
soc@@ 9
southern 9
spaceman 9
spare 9
spee@@ 9
splash 9
splicing 9
squee@@ 9
ssing 9
stam@@ 9
steaming 9
sten@@ 9
stening 9
stery 9
steve 9
stimul@@ 9
stir@@ 9
store@@ 9
strai@@ 9
strap@@ 9
stretching 9
stretchy 9
stric@@ 9
strings 9
stry 9
sugar-free 9
sui 9
sulam 9
sundries 9
superhero 9
supports 9
sutra 9
sweatproof 9
switch@@ 9
tabletop 9
tackle 9
take@@ 9
tali 9
tay@@ 9
tb@@ 9
teen 9
teh 9
term 9
th-@@ 9
thane 9
the-@@ 9
ther 9
thermo@@ 9
throat 9
thy 9
tigers 9
tightening 9
tiles 9
tim@@ 9
tired 9
toes 9
ton-@@ 9
torch 9
tortoi@@ 9
touch@@ 9
touring 9
tremella 9
trending 9
trigger 9
trimming 9
trip 9
tru@@ 9
truffle 9
try 9
tub 9
tune 9
tuner 9
tunic 9
turbo 9
tures 9
turf 9
turkey 9
uan 9
ul 9
urin@@ 9
usage 9
usb-c 9
uts 9
veil 9
ventilation 9
vibrating 9
vibrator 9
victor@@ 9
vios 9
visi@@ 9
vw 9
wai@@ 9
waist-@@ 9
wall-@@ 9
wallpaper 9
wand 9
wasn 9
wb@@ 9
weed 9
weigh@@ 9
while 9
white@@ 9
who@@ 9
wic@@ 9
wish@@ 9
wl 9
wp-@@ 9
x10 9
x100 9
xiong 9
yin@@ 9
yy@@ 9
zer@@ 9
zers 9
zhong@@ 9
zoom@@ 9
zzling 9
± 9
※ 9
☘ 9
❈ 9
【 9
の 9
🧚 9
003 8
0503my611 8
1-2 8
10mm 8
112 8
11lite 8
120ml 8
1500 8
155 8
15mm 8
169 8
16x20 8
170 8
18k 8
190 8
2.5cm 8
2016 8
2021new 8
2024 8
210@@ 8
2223 8
24-24x@@ 8
24g 8
2mm 8
2tb 8
3.1 8
32gb 8
36-4@@ 8
365 8
3pcs 8
4000@@ 8
40ml 8
48-in 8
50m 8
56 8
5th 8
600ml 8
700ml 8
70s 8
74@@ 8
76 8
8-in 8
\ 8
a2@@ 8
a52s 8
a8 8
ability 8
abroad 8
absorb 8
accessor@@ 8
accord 8
acle 8
actions 8
activating 8
acupuncture 8
advance 8
advertising 8
ady 8
af1 8
against 8
age-@@ 8
ais@@ 8
aka 8
aku 8
ality 8
all-round 8
amar@@ 8
ambi@@ 8
anker 8
anklet 8
antang 8
antho@@ 8
anti-bite 8
anti-loss 8
anti-static 8
anti-wrinkle 8
appear@@ 8
appro@@ 8
apricot 8
argb 8
arom@@ 8
asphalt 8
associ@@ 8
assor@@ 8
ast 8
asy 8
asy@@ 8
at-@@ 8
athle@@ 8
athlon 8
atomy 8
attachment 8
attend@@ 8
audi 8
avoid 8
ax 8
ax5 8
ay@@ 8
bac@@ 8
baffle 8
ball@@ 8
ballet 8
banded 8
batman 8
bayi 8
beading 8
beam 8
bean@@ 8
beer 8
behind 8
best-selling 8
bicy@@ 8
bin 8
bite-resistant 8
blow 8
blower 8
bodycon 8
bol@@ 8
boom 8
bow@@ 8
brew 8
bric@@ 8
bring 8
broom 8
bru@@ 8
brush@@ 8
brushes 8
butter@@ 8
cac@@ 8
cadar 8
cai 8
calls 8
calluses 8
canadian 8
canv@@ 8
carefully 8
caring 8
castle 8
casymy 8
cbr@@ 8
ceremony 8
ces@@ 8
chamomile 8
charg@@ 8
chargers 8
charlie 8
chasing 8
chev@@ 8
chin 8
choco 8
chry@@ 8
cian 8
circul@@ 8
circulating 8
clarinet 8
classroom 8
clinique 8
closet 8
clou@@ 8
co-@@ 8
co-branded 8
coarse 8
cognition 8
cold-@@ 8
comes 8
comic 8
component 8
compressor 8
concert 8
constel@@ 8
conversion 8
cooked 8
corded 8
corduroy 8
corpor@@ 8
creativity 8
crochet 8
crun@@ 8
crutches 8
crystals 8
ct-@@ 8
ction@@ 8
cus 8
daigou 8
dart 8
decorating 8
delic 8
demon@@ 8
desert 8
detail 8
devil 8
df@@ 8
diatom@@ 8
diff@@ 8
divin@@ 8
document 8
dor 8
doub@@ 8
dough 8
drama 8
drop-@@ 8
drumstick 8
duct 8
duct@@ 8
duo@@ 8
dv 8
dx@@ 8
dxj09 8
dyeing 8
easy-to-@@ 8
ee 8
elasticity 8
electric@@ 8
electricity 8
eling 8
elizab@@ 8
entry-level 8
epoxy 8
eral 8
erce 8
eric@@ 8
ern 8
ero@@ 8
eth 8
exc@@ 8
exotic 8
explosive 8
export 8
ext@@ 8
exten@@ 8
extinguisher 8
extra-@@ 8
extraction 8
eyeglasses 8
fatigue 8
favor@@ 8
favorite 8
fee 8
fel@@ 8
festive 8
fic@@ 8
fisher 8
fisheye 8
fist 8
flame 8
flat-@@ 8
flavo@@ 8
focal 8
folds 8
folk 8
foodpanda 8
forged 8
forms 8
four@@ 8
fuji@@ 8
funko 8
furni@@ 8
fusion 8
gadget 8
gap 8
garmin 8
gbps 8
genic 8
gf@@ 8
ggy 8
ghten 8
gii 8
glare 8
grapefruit 8
grease 8
greeting 8
group-@@ 8
gx@@ 8
hampers-@@ 8
handwriting 8
hardcover 8
haw@@ 8
head-mounted 8
headed 8
hearts 8
heightened 8
heran 8
hetian 8
hf@@ 8
high-value 8
him 8
hockey 8
hollowed 8
holy 8
honey@@ 8
hotsale 8
hou 8
hour@@ 8
hsi@@ 8
hunan 8
hundred 8
hung 8
hus@@ 8
hyper@@ 8
i-@@ 8
ication 8
imag@@ 8
imaging 8
inclusive 8
incub@@ 8
indic@@ 8
indonesia 8
iness 8
instagram 8
integr@@ 8
interdental 8
intere@@ 8
inverter 8
invitation 8
io@@ 8
iphone8 8
iq@@ 8
ise 8
issu@@ 8
jar@@ 8
jeep 8
jer@@ 8
jie 8
joggers 8
jour@@ 8
joy-con 8
joycon 8
juicy 8
jumper 8
jun 8
justice 8
kanahei 8
kate 8
kelly 8
keto@@ 8
kh@@ 8
kne@@ 8
koko 8
laces 8
lai 8
lamp@@ 8
lancome 8
lars 8
latin 8
law 8
lb 8
lc 8
lect@@ 8
lemon@@ 8
lette 8
levis 8
lifeproof 8
lifetime 8
limited-@@ 8
lit 8
lled 8
loading 8
log 8
loose-leaf 8
loqu@@ 8
lou 8
lounge 8
love@@ 8
lower 8
lubricant 8
lx@@ 8
lzdj@@ 8
m-3xl 8
m12 8
m2@@ 8
m4 8
maca 8
madewell 8
magni@@ 8
magnifying 8
mai 8
mak@@ 8
malaysi@@ 8
mama 8
mao@@ 8
marsh@@ 8
mash@@ 8
matic 8
maz@@ 8
medic@@ 8
melody 8
melting 8
memor@@ 8
mercedes-benz 8
miao@@ 8
micro-single 8
mid-autumn 8
miffybaby 8
mission 8
mitsubishi 8
mme 8
mopping 8
moss 8
mother@@ 8
mugs 8
multi-card 8
mum 8
myprotein 8
nac 8
nba 8
nde 8
ne-@@ 8
neces@@ 8
neigh@@ 8
neoprene 8
next 8
noc@@ 8
nood@@ 8
north@@ 8
novels 8
ns@@ 8
nwot 8
obd2 8
oid 8
omi@@ 8
ones 8
onesie 8
ordin@@ 8
org@@ 8
otterbox 8
overnight 8
owl 8
oxy@@ 8
oz@@ 8
p-proof 8
paci@@ 8
paddle 8
pages 8
pai 8
pala@@ 8
pand@@ 8
pant@@ 8
para@@ 8
partial 8
paws 8
pedestal 8
penguin 8
perspir@@ 8
perspiration 8
pert 8
pg 8
phon 8
phy@@ 8
physi@@ 8
pick@@ 8
pickled 8
pickles 8
pierre 8
pigment 8
pillowcases 8
pix@@ 8
pixiu 8
pizza 8
plane 8
plantar 8
plug-@@ 8
plug@@ 8
plus-size 8
pod@@ 8
pomelo 8
poodle 8
pores 8
position 8
pot@@ 8
pounds 8
pr 8
prai@@ 8
presen@@ 8
print@@ 8
privacy 8
processor 8
produc@@ 8
project 8
prom 8
promi@@ 8
proo@@ 8
propolis 8
protecting 8
protection@@ 8
prun@@ 8
pt9@@ 8
pumping 8
purchased 8
px@@ 8
qc@@ 8
qiao@@ 8
qr 8
qu 8
quarter 8
quickly 8
quinoa 8
rant 8
rap@@ 8
ready-to-eat 8
realistic 8
receipt 8
reci@@ 8
regi@@ 8
reinfor@@ 8
relaxation 8
remin@@ 8
reno5z 8
reno6 8
revolution 8
rf 8
ric 8
rig 8
rious 8
roll-on 8
rompers 8
ropes 8
ros@@ 8
rotary 8
roy@@ 8
rubiks 8
s20@@ 8
s5 8
s9@@ 8
sagging 8
salty 8
sam 8
san 8
sandalwood 8
sanrio 8
satch@@ 8
saxophone 8
scallop 8
scarves 8
scriptures 8
sel 8
serving 8
sew 8
sg@@ 8
shallot 8
shang@@ 8
share 8
shiel@@ 8
shoe@@ 8
shorty 8
shred@@ 8
sig@@ 8
simul@@ 8
singapore 8
sj@@ 8
sl 8
slacks 8
slee@@ 8
slice 8
smart@@ 8
smoo@@ 8
sn 8
sni@@ 8
sol 8
soldi@@ 8
som@@ 8
songs 8
soo@@ 8
souk 8
spa@@ 8
spac@@ 8
spark@@ 8
spect@@ 8
spf50 8
spin 8
spoons 8
sprain 8
ssion 8
ssu@@ 8
staff 8
stained 8
starter 8
stealth 8
steel-toed 8
steel@@ 8
stent 8
sterilizer 8
stinky 8
stion 8
stocking 8
streetwear 8
sub 8
sub-bottling 8
sublimation 8
suitcases 8
sum 8
supplementary 8
suzuki 8
swal@@ 8
swim@@ 8
tails 8
tains 8
taiwan@@ 8
tap 8
tapered 8
tch@@ 8
technical 8
teenage 8
template 8
terra 8
terrace 8
tf@@ 8
thank@@ 8
their 8
theory 8
therap@@ 8
thick-@@ 8
thickness 8
thro@@ 8
throwing 8
tif@@ 8
tilage 8
timo@@ 8
tint 8
tires 8
tommy 8
tons 8
tooth-@@ 8
topper 8
tory 8
traceless 8
traction 8
trademark 8
transformation 8
transport 8
trap@@ 8
travelling 8
trumpet 8
trunk 8
trunks 8
truth 8
tudung 8
tured 8
tut@@ 8
twee@@ 8
twin@@ 8
ugly 8
ull 8
umi 8
underwater 8
unopened 8
ushed 8
ust 8
uting 8
v05@@ 8
v8 8
var@@ 8
vel 8
vet 8
vice 8
visible 8
vj@@ 8
volkswagen 8
vuit@@ 8
w-40 8
wafer 8
walker 8
want 8
warri@@ 8
wars 8
waste 8
weapon 8
wear-resi@@ 8
web@@ 8
wheeled 8
width 8
woodpecker 8
worth 8
wristbands 8
writ@@ 8
ww@@ 8
xa 8
xbox@@ 8
xing@@ 8
y-free 8
yang@@ 8
yer 8
yolk 8
yor@@ 8
youn@@ 8
youtube 8
z1 8
zebra 8
zither 8
zoo 8
zzy 8
é 8
① 8
▫ 8
✽ 8
卍 8
︱ 8
128@@ 7
15.@@ 7
3.5@@ 7
aci@@ 7
alized 7
alling 7
ampli@@ 7
ampo@@ 7
ancy 7
api@@ 7
assembl@@ 7
astron@@ 7
ather 7
beautif@@ 7
bere@@ 7
big@@ 7
blen@@ 7
boot@@ 7
border 7
bot@@ 7
cad@@ 7
cade 7
calend@@ 7
cele@@ 7
cess 7
cg 7
chal@@ 7
champi@@ 7
cky 7
cogni@@ 7
compre@@ 7
concentr@@ 7
cop@@ 7
cup@@ 7
dal 7
desi@@ 7
desig@@ 7
diag@@ 7
diamon@@ 7
dies 7
donald 7
ear-@@ 7
ed-@@ 7
eleg@@ 7
ener 7
ener@@ 7
enter@@ 7
extr@@ 7
eyed 7
eyewear 7
f0@@ 7
fabric@@ 7
face@@ 7
familymart 7
fantastic 7
fare 7
farmers 7
favo@@ 7
feed@@ 7
fender 7
fes@@ 7
fever 7
ffle 7
fications 7
fiction 7
fidget 7
fier 7
fiers 7
filters 7
fined 7
finement 7
fing@@ 7
fl 7
flap 7
flavours 7
flawless 7
flee@@ 7
flowing 7
fluff 7
flush@@ 7
fn@@ 7
foam@@ 7
fogging 7
folded 7
form@@ 7
foun@@ 7
four-way 7
fourth 7
freshly 7
friction 7
fron@@ 7
frosting 7
fuse 7
fzq@@ 7
g20 7
gardening 7
gathering 7
gau@@ 7
ged 7
gem 7
gent 7
geom@@ 7
germicidal 7
gets 7
ghty 7
gigab@@ 7
given 7
glam 7
glas@@ 7
glide 7
goalkeeper 7
gon@@ 7
goose 7
goro 7
grain-free 7
grap@@ 7
graphed 7
gray@@ 7
guang 7
gucc@@ 7
guess 7
gummy 7
guo@@ 7
gy 7
gyro@@ 7
gz@@ 7
hab@@ 7
hairband 7
halo@@ 7
hand-painted 7
handic@@ 7
happiness 7
hari 7
harma 7
hawk 7
hay@@ 7
heatsink 7
hei 7
heroes 7
hes 7
highest 7
historic 7
hon 7
hr 7
hrv 7
hs 7
huan 7
hul@@ 7
hunter 7
hygi@@ 7
iced 7
icul@@ 7
ik@@ 7
ile 7
imm@@ 7
immortal 7
imperial 7
imports 7
impre@@ 7
impro@@ 7
in1 7
indigo 7
individu@@ 7
individual 7
indonesian 7
inflammation 7
information 7
inger 7
inking 7
ino@@ 7
input 7
inspection 7
inst@@ 7
instal@@ 7
intel 7
intel@@ 7
intestinal 7
irator 7
irrig@@ 7
isol@@ 7
iting 7
itor 7
ivy 7
jc 7
jerry 7
jerse@@ 7
jinmen 7
jiu@@ 7
joker 7
kaguya 7
kaws 7
keith 7
kelp 7
khind 7
kie 7
kill 7
kimchi 7
klein 7
kni@@ 7
kong@@ 7
korean-version 7
kum@@ 7
kun@@ 7
kx-p@@ 7
kyo@@ 7
lactic 7
lamin@@ 7
landing 7
langu@@ 7
large-@@ 7
layout 7
lc@@ 7
le-free 7
leak 7
leather@@ 7
length@@ 7
leo@@ 7
levels 7
lightening 7
lilly 7
links 7
litt@@ 7
liver 7
lob@@ 7
log@@ 7
logi@@ 7
lollipops 7
lon 7
looking 7
lot@@ 7
loupe 7
luo@@ 7
m-2xl 7
m0@@ 7
m11 7
m5 7
mach@@ 7
machin@@ 7
magsafe 7
mail 7
mala@@ 7
mallows 7
manag@@ 7
mandarin 7
marathon 7
marking 7
masturbation 7
match@@ 7
maternal 7
mavic 7
mbps 7
mdns 7
ment@@ 7
mental 7
mentation 7
mented 7
mesin 7
metabolism 7
metallic 7
mexico 7
michael 7
microsoft 7
mid-high 7
middle-age 7
mies 7
milk@@ 7
miniso 7
mmer@@ 7
moc@@ 7
mock 7
moist 7
moistu@@ 7
molds 7
monochrome 7
mood 7
mosai@@ 7
motherboard 7
mould 7
mousepad 7
mp3 7
mtb 7
multi-size 7
museum 7
must@@ 7
mx-@@ 7
nano@@ 7
nap@@ 7
nb 7
ney 7
nitri@@ 7
nk 7
notepad 7
noug@@ 7
nut@@ 7
nutritious 7
nv@@ 7
nw@@ 7
obd 7
octag@@ 7
ocular 7
oem 7
off-@@ 7
oil-free 7
older 7
olympus 7
one-click 7
oned 7
onyx 7
organ 7
organizing 7
ority 7
ornamental 7
ounce 7
outfit@@ 7
outline 7
ow 7
oxi@@ 7
oxin 7
oyster 7
pagar 7
painless 7
pairing 7
paren@@ 7
pass@@ 7
pati@@ 7
patio 7
patri@@ 7
patter@@ 7
peacock 7
peak 7
peel@@ 7
pegs 7
pestic@@ 7
petite 7
phal@@ 7
phili@@ 7
phin 7
pia 7
picked 7
picker 7
pictures 7
pig@@ 7
pirate 7
pired 7
plus-@@ 7
pointer 7
polisher 7
posture 7
potat@@ 7
powerbank 7
preferential 7
premier 7
pressing 7
preven@@ 7
process@@ 7
profes@@ 7
promotional 7
propel@@ 7
protector@@ 7
proton 7
ps2 7
pse 7
psp 7
puffs 7
puffy 7
pulitzer 7
pulsa 7
punch-free 7
puri@@ 7
put@@ 7
pv@@ 7
pw@@ 7
qin 7
quali@@ 7
quet 7
quick-dry 7
qwetai526 7
ral@@ 7
rasp@@ 7
rat@@ 7
raya 7
raz@@ 7
reaction 7
real@@ 7
reas@@ 7
rece@@ 7
recei@@ 7
recovery 7
rena 7
rep-cal 7
requi@@ 7
retri@@ 7
retrofit 7
revitalizing 7
revol@@ 7
reyalxa 7
rib@@ 7
rick 7
rollers 7
romance 7
roses 7
rous 7
rows 7
ruff@@ 7
rug@@ 7
rugby 7
rui@@ 7
runner 7
russian 7
s.@@ 7
s4@@ 7
sachet 7
sail 7
saint 7
salad 7
sali@@ 7
santhemum 7
scar 7
scheming 7
screwdriver 7
sculpting 7
seconds 7
seluar 7
sent 7
sequined 7
shank 7
sharpening 7
shawn 7
shea 7
shell@@ 7
shoe-@@ 7
short-sleeves 7
shoul@@ 7
shut@@ 7
silkworm 7
silver-@@ 7
silver@@ 7
simpli@@ 7
simulated 7
sisal 7
sixth 7
skate 7
sleeve@@ 7
slope 7
small-@@ 7
small@@ 7
smax 7
sne@@ 7
snowflake 7
soaking 7
sof@@ 7
sofy 7
soluble 7
song@@ 7
sonic@@ 7
south@@ 7
spatula 7
specially 7
spectr@@ 7
spherical 7
spider 7
spinner 7
spli@@ 7
splint 7
spoi@@ 7
spool 7
sporty 7
spr@@ 7
spring@@ 7
sq@@ 7
square@@ 7
squeeze 7
sr 7
sser 7
stair 7
stall 7
stat 7
stella 7
stie 7
stopwatch 7
stray 7
stret@@ 7
strictly 7
sub-bottle 7
success 7
sumikko 7
sun-proof 7
sunday 7
superman 7
supplements 7
sv@@ 7
swa@@ 7
sweat-wicking 7
sweatshirts 7
swee@@ 7
sweet@@ 7
swipe 7
sym@@ 7
sz@@ 7
t-back 7
table@@ 7
tac@@ 7
tacho@@ 7
tailored 7
taiwanese 7
taken 7
tam 7
taoyuan 7
taupe 7
teenager 7
templates 7
temple 7
tes@@ 7
theft 7
thernet 7
thers 7
thinking 7
thread@@ 7
threads 7
tibetan 7
tie-dye 7
tify 7
time-@@ 7
tity 7
tm 7
tobacco 7
tongs 7
topaz 7
totoro 7
tou@@ 7
tour@@ 7
tow 7
transformers 7
treasures 7
tri 7
tribe 7
trinket 7
tron 7
tuna 7
tungsten 7
tunnel 7
turntable 7
tuy@@ 7
twos 7
tx@@ 7
tyard 7
tyrannosaurus 7
ube 7
ubere@@ 7
ude 7
ugh 7
uiser 7
uity 7
ule 7
uling 7
ultr@@ 7
ultra-fine 7
ultra-high 7
uly 7
uncle 7
union 7
uno 7
ups 7
urgent 7
us-@@ 7
usher 7
utility 7
ux@@ 7
vac@@ 7
valentines 7
valu@@ 7
venus 7
vertebra 7
vest@@ 7
virgin 7
vn@@ 7
voc@@ 7
volt@@ 7
volumes 7
vorous 7
w2@@ 7
wal 7
walk@@ 7
wana 7
watch3 7
way@@ 7
wechat 7
welder 7
wen 7
wers 7
wester@@ 7
whir@@ 7
whis@@ 7
wi-fi 7
wil@@ 7
wind-@@ 7
wis@@ 7
wishshope@@ 7
wizard 7
wom@@ 7
wool@@ 7
worker 7
x60 7
xiaomi@@ 7
xinjiang 7
xiu@@ 7
yanxuan 7
yar@@ 7
yaris 7
you-can-eat 7
your@@ 7
zel@@ 7
zhan 7
zheng 7
zom@@ 7
zz 7
é@@ 7
ōterra 7
♈ 7
♠ 7
♦ 7
✜ 7
❁ 7
、 7
㊙ 7
︎ 7
🤍 7
-mounted 6
.3 6
41@@ 6
650 6
9.@@ 6
aa@@ 6
adven@@ 6
akers 6
akes 6
ali 6
aling 6
allo@@ 6
amaz@@ 6
amination 6
ann@@ 6
atin 6
ation-@@ 6
aves 6
bage 6
bang@@ 6
baske@@ 6
bee@@ 6
birth@@ 6
blaz@@ 6
bouti@@ 6
bub@@ 6
bum 6
calori@@ 6
chun@@ 6
cil 6
colli@@ 6
contain@@ 6
conver@@ 6
dash@@ 6
develo@@ 6
doors 6
drum@@ 6
en-@@ 6
engine@@ 6
enlar@@ 6
environ@@ 6
enzy@@ 6
equi@@ 6
essen@@ 6
eth@@ 6
fab@@ 6
fer 6
flu@@ 6
fp@@ 6
fz@@ 6
happ@@ 6
hear@@ 6
hin 6
ici@@ 6
ico 6
icy 6
inclu@@ 6
ind 6
iner 6
inte@@ 6
intelli@@ 6
inter 6
ints 6
io 6
juni@@ 6
keeper 6
ket 6
kia 6
kir@@ 6
lar 6
leno@@ 6
lint 6
lish 6
make@@ 6
mentary 6
merce@@ 6
mming 6
neo@@ 6
nic 6
nint@@ 6
old@@ 6
oming 6
oo@@ 6
opp@@ 6
organ@@ 6
ove 6
paid 6
pear@@ 6
peripher@@ 6
pine@@ 6
probio@@ 6
quo@@ 6
ran@@ 6
ready@@ 6
rechar@@ 6
recomm@@ 6
ref@@ 6
replace@@ 6
restaur@@ 6
rever@@ 6
rus@@ 6
sac@@ 6
saw 6
scoo@@ 6
scrat@@ 6
sei@@ 6
sequ@@ 6
sic 6
siz@@ 6
skin@@ 6
skir@@ 6
smashing 6
some 6
sor 6
spf@@ 6
spon@@ 6
stel@@ 6
stom@@ 6
stur@@ 6
sure 6
syste@@ 6
tens 6
thre@@ 6
tics 6
tizer 6
toile@@ 6
trai@@ 6
tter 6
u.@@ 6
um-@@ 6
ummy 6
ustic 6
uto 6
vate 6
vibr@@ 6
vide@@ 6
vitam@@ 6
volution 6
vou@@ 6
wide-@@ 6
wrap@@ 6
xiaom@@ 6
– 6
” 6
▌ 6
▤ 6
▸ 6
◘ 6
☈ 6
☊ 6
☑ 6
♂ 6
♚ 6
♛ 6
♣ 6
✖ 6
✡ 6
✾ 6
❆ 6
❉ 6
➕ 6
﹍ 6
𝒆 6
🥕 6
🦐 6
-new 5
-on 5
5z 5
after@@ 5
airs 5
alco@@ 5
alcoho@@ 5
aler 5
alls 5
amel 5
aming 5
ancho@@ 5
andro@@ 5
ately 5
bacter@@ 5
bacterial 5
begin@@ 5
bey@@ 5
bon 5
bottling 5
camp@@ 5
cast@@ 5
children@@ 5
christ@@ 5
cn@@ 5
cold@@ 5
competi@@ 5
condition@@ 5
cry@@ 5
culo@@ 5
cylin@@ 5
dad@@ 5
dden 5
defen@@ 5
dered 5
dic 5
dispen@@ 5
distr@@ 5
dut@@ 5
eco-@@ 5
eds 5
em 5
ental 5
farm@@ 5
ffee 5
figu@@ 5
flam@@ 5
flash@@ 5
foli@@ 5
formul@@ 5
garden@@ 5
ge-@@ 5
genu@@ 5
ghten@@ 5
graphi@@ 5
grin@@ 5
heal@@ 5
hot-@@ 5
iden@@ 5
ination 5
insta@@ 5
install@@ 5
insul@@ 5
inted 5
intro@@ 5
inver@@ 5
jig@@ 5
ju 5
kena 5
kid@@ 5
lation 5
lent 5
lery 5
made@@ 5
membr@@ 5
mine 5
mirror@@ 5
moti@@ 5
nal 5
nei@@ 5
ners 5
nis 5
ocul@@ 5
oh 5
oon 5
ort 5
pepper@@ 5
pir@@ 5
preser@@ 5
prin@@ 5
quanti@@ 5
raft 5
reen 5
revitali@@ 5
rho@@ 5
roll@@ 5
rope@@ 5
sandal@@ 5
sati@@ 5
semi@@ 5
shampo@@ 5
shir@@ 5
shor@@ 5
sian 5
sil 5
silk@@ 5
sional 5
slim-@@ 5
solu@@ 5
sour@@ 5
sso@@ 5
stal@@ 5
stance 5
stat@@ 5
stration 5
straw@@ 5
sture 5
sugar@@ 5
susp@@ 5
sweat-@@ 5
tach@@ 5
tasse@@ 5
tech@@ 5
tel 5
tening 5
thous@@ 5
ti-@@ 5
timber@@ 5
time@@ 5
tou 5
tradi@@ 5
transpa@@ 5
two@@ 5
uation 5
ui@@ 5
ular 5
unge 5
univer@@ 5
ury 5
valent@@ 5
vani@@ 5
vis 5
volu@@ 5
wall@@ 5
whe@@ 5
windbre@@ 5
year-@@ 5
yl 5
zir@@ 5
° 5
ஐ 5
₪ 5
← 5
┇ 5
▶ 5
◄ 5
○ 5
♙ 5
✎ 5
✘ 5
✱ 5
✳ 5
✵ 5
❦ 5
の@@ 5
㍿ 5
𝐨 5
𝒂 5
𝒎 5
𝒐 5
𝒓 5
🆕 5
🉐 5
🧡 5
-version 4
24x@@ 4
> 4
absorb@@ 4
acket 4
acks 4
acted 4
addle 4
ads 4
adv@@ 4
adverti@@ 4
afric@@ 4
ago 4
aker 4
ambo@@ 4
ancing 4
anium 4
anti-pe@@ 4
aping 4
apped 4
apri@@ 4
arium 4
asse@@ 4
atom@@ 4
aut 4
aut@@ 4
ava 4
aving 4
bisc@@ 4
brist@@ 4
carry@@ 4
celebr@@ 4
cere@@ 4
cess@@ 4
chan 4
chic@@ 4
choo@@ 4
collap@@ 4
confiden@@ 4
cyc@@ 4
d2 4
dable 4
dded 4
degre@@ 4
depart@@ 4
die@@ 4
dinosa@@ 4
dir@@ 4
distribu@@ 4
eag@@ 4
ean 4
effe@@ 4
elastic@@ 4
eled 4
environment@@ 4
ese-style 4
essor@@ 4
europe@@ 4
explo@@ 4
expo@@ 4
extingui@@ 4
ey 4
fading 4
fami@@ 4
ffed 4
fie 4
fing 4
flag@@ 4
fram@@ 4
friend@@ 4
fts 4
gala@@ 4
gar 4
ghe@@ 4
gne 4
grocer@@ 4
hawai@@ 4
heric@@ 4
holi@@ 4
horiz@@ 4
ht@@ 4
icial 4
im 4
ima@@ 4
inc 4
indo@@ 4
inspir@@ 4
instr@@ 4
inti@@ 4
inu@@ 4
invit@@ 4
ior 4
jac@@ 4
joh@@ 4
just@@ 4
lace-@@ 4
lam 4
lang@@ 4
lanter@@ 4
lear@@ 4
legen@@ 4
leng@@ 4
lk 4
llas 4
loaf@@ 4
lowe@@ 4
lz@@ 4
macar@@ 4
mal 4
malay@@ 4
manic@@ 4
mold@@ 4
moun@@ 4
multifun@@ 4
nd 4
need@@ 4
odle 4
opened 4
oun@@ 4
pay@@ 4
pic 4
pinch 4
plant@@ 4
popul@@ 4
posi@@ 4
pple 4
presb@@ 4
prise 4
proje@@ 4
quick@@ 4
rap 4
ready-to-@@ 4
rear@@ 4
redi@@ 4
rela@@ 4
rele@@ 4
resc@@ 4
rhy@@ 4
riage 4
romp@@ 4
roun@@ 4
rt 4
sak@@ 4
scallo@@ 4
secre@@ 4
servative 4
shatter@@ 4
shin 4
shock-@@ 4
sili@@ 4
skate@@ 4
soy@@ 4
spar@@ 4
squir@@ 4
ssor 4
ssy 4
stant 4
steam@@ 4
sten 4
stit@@ 4
stop@@ 4
subli@@ 4
suit-@@ 4
sumik@@ 4
sunshine 4
swear 4
tailo@@ 4
teach@@ 4
tend@@ 4
terr@@ 4
them@@ 4
thern 4
tice 4
tish 4
tly 4
toed 4
toi@@ 4
tomat@@ 4
towel@@ 4
track@@ 4
travel@@ 4
tress 4
trin@@ 4
tural 4
uit@@ 4
umbo 4
usable 4
uter 4
utter 4
vable 4
vali@@ 4
vement 4
veni@@ 4
viet@@ 4
ware@@ 4
warran@@ 4
wel 4
yopia 4
yp@@ 4
zard 4
¤ 4
ō 4
​ 4
— 4
… 4
│ 4
█ 4
▥ 4
▬ 4
△ 4
☂ 4
☍ 4
☏ 4
☜ 4
☞ 4
☢ 4
☸ 4
☼ 4
♗ 4
♘ 4
♞ 4
♪ 4
♫ 4
✉ 4
✑ 4
✒ 4
✥ 4
✯ 4
✹ 4
✼ 4
❃ 4
❇ 4
〓 4
﹉ 4
ﺴ@@ 4
！ 4
＋ 4
． 4
𝐍 4
𝒖 4
𝒚 4
🈶 4
🟠 4
🥤 4
🦆 4
🧾 4
-cal 3
13promax 3
39s 3
absor@@ 3
aco@@ 3
activ@@ 3
additi@@ 3
ades 3
adhe@@ 3
agu@@ 3
alk@@ 3
ament 3
analo@@ 3
angular 3
anite 3
anni@@ 3
arian 3
armo@@ 3
arrang@@ 3
ashing 3
assem@@ 3
atmo@@ 3
autum@@ 3
aveng@@ 3
bath@@ 3
bic@@ 3
boar@@ 3
bohemi@@ 3
brazi@@ 3
bright@@ 3
brow 3
bull@@ 3
cami@@ 3
cei@@ 3
cell@@ 3
chet 3
chuan 3
cious 3
climb@@ 3
coal 3
coco@@ 3
commod@@ 3
compon@@ 3
cony 3
cord@@ 3
coup@@ 3
covery 3
crisp@@ 3
dandruff 3
desk@@ 3
dess@@ 3
deter@@ 3
dge@@ 3
disinfe@@ 3
distri@@ 3
dj@@ 3
dress@@ 3
dule 3
educ@@ 3
embo@@ 3
emer@@ 3
ems 3
endo 3
energy-@@ 3
engra@@ 3
entr@@ 3
envelo@@ 3
ert 3
eti@@ 3
etric 3
extra@@ 3
figh@@ 3
flan@@ 3
food@@ 3
foreig@@ 3
fragr@@ 3
fren@@ 3
gab@@ 3
geon 3
ggage 3
ggers 3
gic 3
gil@@ 3
gle 3
great@@ 3
gur@@ 3
heav@@ 3
hedgeho@@ 3
hino@@ 3
hoodi@@ 3
humidi@@ 3
hypo@@ 3
ight 3
impor@@ 3
ingo 3
iro@@ 3
ite@@ 3
jap@@ 3
jel@@ 3
kang@@ 3
kini 3
kins 3
knee-@@ 3
knit@@ 3
kore@@ 3
lding 3
lings 3
liter@@ 3
llar 3
loco@@ 3
loved 3
lubric@@ 3
lum@@ 3
lumin@@ 3
manufactu@@ 3
masturb@@ 3
mation 3
mbal 3
milit@@ 3
minal 3
mirro@@ 3
mmy 3
moder@@ 3
mony 3
mountaine@@ 3
mous@@ 3
mushro@@ 3
mut@@ 3
navig@@ 3
ney@@ 3
noon 3
oat@@ 3
oded 3
old-@@ 3
omic 3
oring 3
otic 3
outer@@ 3
patch@@ 3
pei 3
pengu@@ 3
peremp@@ 3
ple 3
polar@@ 3
practi@@ 3
pres@@ 3
pressu@@ 3
protecti@@ 3
pump@@ 3
purch@@ 3
purpo@@ 3
recommend@@ 3
refri@@ 3
rence 3
retr@@ 3
retro@@ 3
rist 3
rist@@ 3
roast@@ 3
rom@@ 3
rubi@@ 3
sani@@ 3
scr@@ 3
search 3
sleev@@ 3
sling@@ 3
snew 3
special@@ 3
sphere 3
stabili@@ 3
stain@@ 3
station@@ 3
stones 3
succu@@ 3
sung 3
supple@@ 3
synthe@@ 3
t.@@ 3
tables 3
tack 3
taiw@@ 3
tao@@ 3
tball 3
tents 3
thick@@ 3
thir@@ 3
tical 3
tick@@ 3
tified 3
tok@@ 3
toyo@@ 3
turn@@ 3
uch 3
uit 3
umbre@@ 3
ume 3
ump 3
unt 3
uses 3
velo@@ 3
vil 3
wardro@@ 3
wrink@@ 3
wrinkle 3
xed 3
y-level 3
yon 3
yx 3
zza 3
ü@@ 3
۩ 3
‘ 3
№ 3
⇟ 3
⊕ 3
┃ 3
┅ 3
▨ 3
◀ 3
◇ 3
◐ 3
◑ 3
☄ 3
☇ 3
☌ 3
☎ 3
☕ 3
☪ 3
☫ 3
☬ 3
☽ 3
♕ 3
♝ 3
♤ 3
♨ 3
♬ 3
✐ 3
✣ 3
✤ 3
✴ 3
✶ 3
✺ 3
❅ 3
❖ 3
❡ 3
❧ 3
さ@@ 3
ー 3
卐 3
＆ 3
𝒏 3
𝒕 3
𝓁 3
𝟑 3
🥰 3
🥳 3
🧧 3
🧨 3
16x@@ 2
462 2
< 2
abdom@@ 2
aceless 2
adow 2
affor@@ 2
aha 2
alian 2
aller@@ 2
alphab@@ 2
alu@@ 2
alum@@ 2
americ@@ 2
appy 2
arctic 2
ased 2
ashes 2
astic 2
autho@@ 2
axi@@ 2
beau@@ 2
bracele@@ 2
broi@@ 2
cardig@@ 2
care@@ 2
cartri@@ 2
cash@@ 2
cense 2
cheap@@ 2
chemic@@ 2
chief 2
chocol@@ 2
chop@@ 2
chungh@@ 2
class@@ 2
click 2
cocon@@ 2
collar@@ 2
colum@@ 2
comput@@ 2
cowhi@@ 2
craw@@ 2
cro 2
das 2
delic@@ 2
deodor@@ 2
dget 2
diap@@ 2
diffe@@ 2
diffus@@ 2
dimen@@ 2
dispos@@ 2
distin@@ 2
docum@@ 2
drin@@ 2
duce 2
dynam@@ 2
e-resistant 2
eable 2
eing 2
eld 2
eman 2
embroi@@ 2
erman 2
esh@@ 2
eter 2
eyesh@@ 2
fall-@@ 2
fashioned 2
fav@@ 2
feren@@ 2
ferential 2
ferred 2
fini@@ 2
flake 2
flav@@ 2
flexi@@ 2
geable 2
ghtening 2
ghtly 2
grace@@ 2
grape@@ 2
gy-@@ 2
haraju@@ 2
held 2
herb@@ 2
hex@@ 2
histor@@ 2
hout 2
humidification 2
in-one 2
ined 2
infe@@ 2
inger@@ 2
ingredi@@ 2
inje@@ 2
instrum@@ 2
intest@@ 2
inting 2
itech 2
iti 2
itter 2
jac 2
kim@@ 2
lage 2
ley@@ 2
lf 2
lithi@@ 2
lori@@ 2
lt-@@ 2
mani 2
mater@@ 2
mechan@@ 2
melo@@ 2
metab@@ 2
mets 2
mex@@ 2
miff@@ 2
mik@@ 2
monit@@ 2
motive 2
moxi@@ 2
multi-fun@@ 2
neut@@ 2
nf@@ 2
nik@@ 2
nostal@@ 2
octop@@ 2
ola 2
ott@@ 2
ous@@ 2
pajam@@ 2
panty@@ 2
ped@@ 2
pedic@@ 2
pendent 2
pere@@ 2
perform@@ 2
phone@@ 2
pok@@ 2
polo@@ 2
polye@@ 2
pub@@ 2
quart@@ 2
ral 2
rect@@ 2
repel@@ 2
rey@@ 2
rized 2
rul@@ 2
sanit@@ 2
saurus 2
sca@@ 2
scen@@ 2
schoo@@ 2
scrip@@ 2
scrun@@ 2
sher 2
shri@@ 2
sign@@ 2
single@@ 2
six@@ 2
stereo@@ 2
straight-@@ 2
struction 2
sual 2
swag@@ 2
technic@@ 2
teen@@ 2
thail@@ 2
thus 2
tie-@@ 2
tik@@ 2
tough@@ 2
tout 2
tox@@ 2
treat@@ 2
tropic@@ 2
trous@@ 2
ttery 2
ttes 2
ulti@@ 2
umb 2
univers@@ 2
up-@@ 2
urus 2
uth 2
v4 2
vacu@@ 2
vals 2
vehi@@ 2
vels 2
verti@@ 2
very@@ 2
vie 2
wear-@@ 2
wed@@ 2
wet@@ 2
windo@@ 2
woofer 2
worko@@ 2
xo@@ 2
zable 2
zzles 2
£ 2
º 2
ū@@ 2
ф 2
༶ 2
ᐟ 2
ᴏ@@ 2
ᴗ 2
ᴱ@@ 2
ầ@@ 2
‖ 2
“ 2
‧ 2
℃ 2
ↂ 2
∋ 2
⌛ 2
ⓑ@@ 2
║ 2
■ 2
▦ 2
▧ 2
▩ 2
▽ 2
◈ 2
◕ 2
◢ 2
◤ 2
☒ 2
☔ 2
☺ 2
☾ 2
♟ 2
⚜ 2
⚪ 2
✇ 2
✓ 2
✕ 2
✚ 2
✠ 2
✢ 2
✦ 2
✧ 2
✩ 2
✮ 2
✲ 2
✻ 2
❍ 2
❏ 2
❒ 2
➿ 2
⧳ 2
。 2
い 2
い@@ 2
く@@ 2
た@@ 2
ら 2
ㄟ 2
一 2
茶 2
货 2
커 2
ﺴ 2
－ 2
］ 2
𝑜 2
𝒽 2
𝓮 2
𝓵 2
𝕯 2
𝘰 2
🀄 2
🈵 2
🤤 2
🥇 2
🥐 2
🥜 2
🥢 2
🦄 2
🦑 2
🦪 2
🧩 2
🧶 2
🪴 2
-all 1
-c 1
503my611 1
52s 1
614462 1
614@@ 1
` 1
`@@ 1
acupun@@ 1
adul@@ 1
agement 1
aju@@ 1
aked 1
allergenic 1
alph@@ 1
alumini@@ 1
aman 1
ampers 1
anced 1
ances 1
anim@@ 1
anthus 1
aoke 1
aper@@ 1
apik 1
aple 1
apon 1
apy 1
arin 1
artif@@ 1
asphal@@ 1
atics 1
attach@@ 1
auro@@ 1
austra@@ 1
authoriz@@ 1
avail@@ 1
avy 1
azine 1
bacc@@ 1
barbe@@ 1
bedro@@ 1
beh@@ 1
best-@@ 1
bishi 1
bone@@ 1
brai@@ 1
brid 1
bsl@@ 1
budd@@ 1
bund@@ 1
calci@@ 1
camcor@@ 1
can-@@ 1
capsu@@ 1
cara 1
centr@@ 1
certif@@ 1
chamomi@@ 1
champa@@ 1
chee 1
chel@@ 1
chest@@ 1
clusive 1
clut@@ 1
coll@@ 1
compati@@ 1
comprehen@@ 1
concer@@ 1
condi@@ 1
confi@@ 1
cran@@ 1
creati@@ 1
crut@@ 1
ctic 1
ctr@@ 1
dand@@ 1
dau@@ 1
dedic@@ 1
defini@@ 1
dery 1
detach@@ 1
dile 1
dity 1
dodo 1
doraem@@ 1
dormit@@ 1
drain@@ 1
draw@@ 1
dump@@ 1
dung 1
ede 1
eff@@ 1
ela@@ 1
elder@@ 1
elect@@ 1
elli@@ 1
elo 1
enhan@@ 1
epide@@ 1
epo@@ 1
ergon@@ 1
excel@@ 1
expan@@ 1
expir@@ 1
eyel@@ 1
family@@ 1
fant@@ 1
fau@@ 1
ferti@@ 1
flaw@@ 1
fore 1
formal@@ 1
formation 1
freez@@ 1
frequ@@ 1
gad@@ 1
gare@@ 1
gash@@ 1
gency 1
gentle@@ 1
gin 1
gla@@ 1
godd@@ 1
good-@@ 1
gou 1
gour@@ 1
gradi@@ 1
grow@@ 1
guaran@@ 1
guarante@@ 1
hallowe@@ 1
handle@@ 1
hered 1
hip@@ 1
hire 1
hok@@ 1
hydra@@ 1
icate 1
immor@@ 1
in-free 1
industri@@ 1
inet 1
infra@@ 1
inge 1
ingui@@ 1
inosa@@ 1
inspe@@ 1
intment 1
ipo@@ 1
ique 1
isl@@ 1
ital@@ 1
itar 1
ither 1
jab 1
jelly@@ 1
juven@@ 1
kagu@@ 1
kari 1
kerchief 1
korean@@ 1
kx-@@ 1
landsc@@ 1
lates 1
layo@@ 1
lein 1
lela@@ 1
lescent 1
liary 1
linger@@ 1
lita 1
lli 1
llowed 1
lolli@@ 1
loose-@@ 1
loud@@ 1
mallow 1
massa@@ 1
mercedes-@@ 1
merchan@@ 1
met 1
metal@@ 1
midd@@ 1
minima@@ 1
mint@@ 1
mitsu@@ 1
mmable 1
mond 1
mosqu@@ 1
mountain@@ 1
mouse@@ 1
mper 1
nam 1
neg@@ 1
nity 1
nology 1
nord@@ 1
off-the-@@ 1
oise 1
olism 1
oly@@ 1
olymp@@ 1
omeg@@ 1
ornam@@ 1
otter@@ 1
ouflage 1
over-the-@@ 1
pain@@ 1
panor@@ 1
parf@@ 1
partum 1
pation 1
pean@@ 1
peon@@ 1
pep@@ 1
pers-@@ 1
pick-@@ 1
pillow@@ 1
pne@@ 1
pneum@@ 1
poke@@ 1
poké@@ 1
pops 1
porcel@@ 1
pregn@@ 1
privac@@ 1
protect@@ 1
pud@@ 1
purple@@ 1
quar@@ 1
quic@@ 1
quino@@ 1
qwetai@@ 1
rd 1
re-proof 1
reali@@ 1
refre@@ 1
rem 1
rfi@@ 1
rhom@@ 1
rig@@ 1
rotat@@ 1
rounding 1
roy 1
sach@@ 1
sandwic@@ 1
scopic 1
scul@@ 1
sculp@@ 1
seam@@ 1
secur@@ 1
sensi@@ 1
shallo@@ 1
shin-@@ 1
shope@@ 1
shre@@ 1
sical 1
sion-@@ 1
sion-proof 1
snor@@ 1
snork@@ 1
souvenir@@ 1
spiri@@ 1
stal 1
steel-@@ 1
sterili@@ 1
street@@ 1
stretch@@ 1
suc@@ 1
supre@@ 1
surance 1
survei@@ 1
tack@@ 1
taoi@@ 1
telesco@@ 1
tenna 1
terrap@@ 1
thm 1
tials 1
tification 1
tifun@@ 1
tioning 1
tles 1
todd@@ 1
toge@@ 1
tomatic 1
topa@@ 1
toro 1
toxic 1
trail@@ 1
trait 1
transform@@ 1
transm@@ 1
trump@@ 1
tti 1
ttle 1
tual 1
tul@@ 1
tumbl@@ 1
tyran@@ 1
tyranno@@ 1
umes 1
upgr@@ 1
upun@@ 1
valen@@ 1
vege@@ 1
vei@@ 1
venir 1
verage 1
vic 1
vig@@ 1
vint@@ 1
w. 1
wast@@ 1
wered 1
wi-@@ 1
wneck 1
xation 1
ybaby 1
yopic 1
zab@@ 1
zodi@@ 1
zuki 1
zzang 1
¦ 1
§ 1
à 1
á@@ 1
ä 1
è@@ 1
ë 1
í@@ 1
ñ@@ 1
ô@@ 1
ö@@ 1
đ@@ 1
ē@@ 1
ɪ 1
ɴ 1
ɴ@@ 1
ʜ@@ 1
˙ 1
ˢ 1
ˢ@@ 1
̅ 1
κ@@ 1
σ@@ 1
т@@ 1
у 1
я@@ 1
ѕ@@ 1
و 1
۞ 1
ஐ@@ 1
๑ 1
დ 1
დ@@ 1
ო@@ 1
ღ 1
ღ@@ 1
ᴀ@@ 1
ᴍ@@ 1
ᴰ@@ 1
ᴸ@@ 1
ᴹ@@ 1
ᴺ@@ 1
ᴼ@@ 1
ᴾ 1
ᵀ 1
ộ@@ 1
ừ@@ 1
‑ 1
› 1
⁵ 1
℗ 1
℡ 1
ⅱ 1
↓ 1
↘ 1
∈ 1
∏ 1
∕ 1
∼ 1
⋯ 1
⎛ 1
⎞ 1
⏩ 1
② 1
③ 1
ⓐ@@ 1
ⓖ@@ 1
ⓘ@@ 1
ⓛ@@ 1
ⓜ@@ 1
ⓞ 1
ⓠ 1
ⓨ 1
━ 1
┋ 1
▛ 1
▟ 1
□ 1
▣ 1
▼ 1
◊ 1
◍ 1
◖ 1
◗ 1
◙ 1
◯ 1
◻ 1
☉ 1
☋ 1
☛ 1
☝ 1
♒ 1
♔ 1
♖ 1
♜ 1
⚘ 1
⚫ 1
⛑ 1
⛓ 1
⛔ 1
⛺ 1
✁ 1
✂ 1
✆ 1
✋ 1
✗ 1
✙ 1
✟ 1
✰ 1
✷ 1
✸ 1
❄ 1
❎ 1
❕ 1
❥ 1
❰ 1
❱ 1
➎ 1
➠ 1
➡ 1
➰ 1
⟪ 1
⟫ 1
⤐ 1
⮨ 1
〃 1
「 1
』 1
〘 1
〙 1
〰 1
う@@ 1
お 1
お@@ 1
か@@ 1
こ 1
し 1
し@@ 1
つ@@ 1
ぼ@@ 1
ま@@ 1
み 1
ら@@ 1
り@@ 1
わ@@ 1
ア 1
ウ@@ 1
サ@@ 1
シ@@ 1
ス@@ 1
ダ@@ 1
パ@@ 1
フ@@ 1
ヘ 1
ミ@@ 1
メ@@ 1
ョ@@ 1
ラ 1
リ 1
リ@@ 1
ン@@ 1
・ 1
ー@@ 1
ㄅ 1
ㄆ 1
ㄇ 1
ㄉ 1
ㄚ 1
ㄟ@@ 1
ㄧ 1
㊝ 1
不 1
丽 1
井 1
仁 1
价 1
使 1
元 1
兔 1
全 1
具 1
养 1
十 1
华 1
单 1
参 1
品 1
国 1
堂 1
子 1
差 1
我 1
新 1
日 1
杂 1
束 1
松 1
森 1
正 1
法 1
浓 1
滋 1
片 1
现 1
精 1
约 1
翻 1
膜 1
诗 1
跳 1
込 1
过 1
金 1
震 1
面 1
韩 1
魔 1
鲫 1
黑 1
드 1
라 1
면 1
사 1
산 1
수 1
 1
︼ 1
﹂ 1
﹋ 1
﹝ 1
﹞ 1
＃ 1
［ 1
＿ 1
ａ@@ 1
ｃ@@ 1
ｈ@@ 1
ｉ@@ 1
ｋ 1
ｐ@@ 1
ｔ@@ 1
ｗ@@ 1
ｙ@@ 1
｢ 1
｣ 1
𓇋 1
𓌉 1
𝐄 1
𝐝 1
𝐞 1
𝐠 1
𝐡 1
𝐢 1
𝐥 1
𝐦 1
𝐬 1
𝐭 1
𝑒 1
𝑬 1
𝑶 1
𝒍 1
𝒑 1
𝒔 1
𝒟 1
𝒶 1
𝒸 1
𝓃 1
𝓅 1
𝓈 1
𝓎 1
𝓬 1
𝓱 1
𝓲 1
𝓶 1
𝘋 1
𝘍 1
𝘛 1
𝘦 1
𝘪 1
𝘳 1
𝟏 1
𝟒 1
𝟓 1
𝟖 1
𝟗 1
🅛 1
🅢 1
🅧 1
🅰 1
🅴 1
🅺 1
🅾 1
🆁 1
🆓 1
🤎 1
🤗 1
🤚 1
🤪 1
🥀 1
🥑 1
🥚 1
🥛 1
🥝 1
🥞 1
🥥 1
🥬 1
🥸 1
🥾 1
🦁 1
🦅 1
🦋 1
🦖 1
🦘 1
🦟 1
🦦 1
🦸 1
🧔 1
🧦 1
🧻 1
🪒 1
🫶 1
𰾭 1
madeupword0000 0
madeupword0001 0
madeupword0002 0
madeupword0003 0
madeupword0004 0
madeupword0005 0
